#include "model.h"

// Keep model aligned to 8 bytes to guarantee aligned 64-bit accesses.
alignas(8) const unsigned char g_model[] = {
0x20, 0x00, 0x00, 0x00, 0x54, 0x46, 0x4c, 0x33, 0x00, 0x00, 0x00, 0x00,
0x14, 0x00, 0x20, 0x00, 0x1c, 0x00, 0x18, 0x00, 0x14, 0x00, 0x10, 0x00,
0x0c, 0x00, 0x00, 0x00, 0x08, 0x00, 0x04, 0x00, 0x14, 0x00, 0x00, 0x00,
0x1c, 0x00, 0x00, 0x00, 0x98, 0x00, 0x00, 0x00, 0xf0, 0x00, 0x00, 0x00,
0x84, 0x1a, 0x00, 0x00, 0x94, 0x1a, 0x00, 0x00, 0xe0, 0x2a, 0x00, 0x00,
0x03, 0x00, 0x00, 0x00, 0x01, 0x00, 0x00, 0x00, 0x10, 0x00, 0x00, 0x00,
0x00, 0x00, 0x0a, 0x00, 0x10, 0x00, 0x0c, 0x00, 0x08, 0x00, 0x04, 0x00,
0x0a, 0x00, 0x00, 0x00, 0x0c, 0x00, 0x00, 0x00, 0x1c, 0x00, 0x00, 0x00,
0x3c, 0x00, 0x00, 0x00, 0x0f, 0x00, 0x00, 0x00, 0x73, 0x65, 0x72, 0x76,
0x69, 0x6e, 0x67, 0x5f, 0x64, 0x65, 0x66, 0x61, 0x75, 0x6c, 0x74, 0x00,
0x01, 0x00, 0x00, 0x00, 0x04, 0x00, 0x00, 0x00, 0x90, 0xff, 0xff, 0xff,
0x0a, 0x00, 0x00, 0x00, 0x04, 0x00, 0x00, 0x00, 0x08, 0x00, 0x00, 0x00,
0x6f, 0x75, 0x74, 0x70, 0x75, 0x74, 0x5f, 0x30, 0x00, 0x00, 0x00, 0x00,
0x01, 0x00, 0x00, 0x00, 0x04, 0x00, 0x00, 0x00, 0x62, 0xe5, 0xff, 0xff,
0x04, 0x00, 0x00, 0x00, 0x0f, 0x00, 0x00, 0x00, 0x6b, 0x65, 0x72, 0x61,
0x73, 0x5f, 0x74, 0x65, 0x6e, 0x73, 0x6f, 0x72, 0x5f, 0x31, 0x32, 0x00,
0x02, 0x00, 0x00, 0x00, 0x34, 0x00, 0x00, 0x00, 0x04, 0x00, 0x00, 0x00,
0xdc, 0xff, 0xff, 0xff, 0x0d, 0x00, 0x00, 0x00, 0x04, 0x00, 0x00, 0x00,
0x13, 0x00, 0x00, 0x00, 0x43, 0x4f, 0x4e, 0x56, 0x45, 0x52, 0x53, 0x49,
0x4f, 0x4e, 0x5f, 0x4d, 0x45, 0x54, 0x41, 0x44, 0x41, 0x54, 0x41, 0x00,
0x08, 0x00, 0x0c, 0x00, 0x08, 0x00, 0x04, 0x00, 0x08, 0x00, 0x00, 0x00,
0x0c, 0x00, 0x00, 0x00, 0x04, 0x00, 0x00, 0x00, 0x13, 0x00, 0x00, 0x00,
0x6d, 0x69, 0x6e, 0x5f, 0x72, 0x75, 0x6e, 0x74, 0x69, 0x6d, 0x65, 0x5f,
0x76, 0x65, 0x72, 0x73, 0x69, 0x6f, 0x6e, 0x00, 0x0e, 0x00, 0x00, 0x00,
0x90, 0x19, 0x00, 0x00, 0x88, 0x19, 0x00, 0x00, 0x64, 0x19, 0x00, 0x00,
0xb4, 0x18, 0x00, 0x00, 0x24, 0x18, 0x00, 0x00, 0x14, 0x10, 0x00, 0x00,
0x04, 0x0f, 0x00, 0x00, 0xb4, 0x00, 0x00, 0x00, 0xac, 0x00, 0x00, 0x00,
0xa4, 0x00, 0x00, 0x00, 0x9c, 0x00, 0x00, 0x00, 0x94, 0x00, 0x00, 0x00,
0x74, 0x00, 0x00, 0x00, 0x04, 0x00, 0x00, 0x00, 0x16, 0xe6, 0xff, 0xff,
0x04, 0x00, 0x00, 0x00, 0x60, 0x00, 0x00, 0x00, 0x0c, 0x00, 0x00, 0x00,
0x08, 0x00, 0x0e, 0x00, 0x08, 0x00, 0x04, 0x00, 0x08, 0x00, 0x00, 0x00,
0x10, 0x00, 0x00, 0x00, 0x28, 0x00, 0x00, 0x00, 0x00, 0x00, 0x06, 0x00,
0x08, 0x00, 0x04, 0x00, 0x06, 0x00, 0x00, 0x00, 0x04, 0x00, 0x00, 0x00,
0x01, 0x00, 0x00, 0x00, 0xeb, 0x03, 0x00, 0x00, 0x0c, 0x00, 0x18, 0x00,
0x14, 0x00, 0x10, 0x00, 0x0c, 0x00, 0x04, 0x00, 0x0c, 0x00, 0x00, 0x00,
0x5d, 0xe9, 0x30, 0x75, 0xb4, 0xd9, 0xc3, 0xa8, 0x01, 0x00, 0x00, 0x00,
0x02, 0x00, 0x00, 0x00, 0x04, 0x00, 0x00, 0x00, 0x06, 0x00, 0x00, 0x00,
0x32, 0x2e, 0x32, 0x30, 0x2e, 0x30, 0x00, 0x00, 0x82, 0xe6, 0xff, 0xff,
0x04, 0x00, 0x00, 0x00, 0x10, 0x00, 0x00, 0x00, 0x31, 0x2e, 0x31, 0x34,
0x2e, 0x30, 0x00, 0x00, 0x00, 0x00, 0x00, 0x00, 0x00, 0x00, 0x00, 0x00,
0x6c, 0xe6, 0xff, 0xff, 0x70, 0xe6, 0xff, 0xff, 0x74, 0xe6, 0xff, 0xff,
0x78, 0xe6, 0xff, 0xff, 0xae, 0xe6, 0xff, 0xff, 0x04, 0x00, 0x00, 0x00,
0x40, 0x0e, 0x00, 0x00, 0xe0, 0xa8, 0x2e, 0xcd, 0xc2, 0x4b, 0xa2, 0x9e,
0x4e, 0x36, 0xe3, 0xb5, 0xff, 0xfe, 0xe7, 0x00, 0xef, 0x2a, 0x18, 0xf0,
0x81, 0xcc, 0xe1, 0x29, 0x32, 0xdc, 0x67, 0x4d, 0xe0, 0xd0, 0xb6, 0x44,
0xac, 0x8c, 0x98, 0xbf, 0x10, 0x46, 0x23, 0x70, 0x9d, 0x4a, 0x14, 0x0a,
0xbb, 0xb9, 0xe6, 0xff, 0xed, 0x49, 0xb4, 0xbe, 0x55, 0x2c, 0xce, 0x32,
0xe9, 0x7f, 0x70, 0x26, 0x11, 0x1f, 0x43, 0xc8, 0xcd, 0xfa, 0xfb, 0xad,
0xde, 0x0b, 0x00, 0x30, 0xae, 0x39, 0x43, 0x29, 0x11, 0x4f, 0x03, 0x13,
0xfb, 0xe5, 0xc0, 0x41, 0xf7, 0xd0, 0xc0, 0x1a, 0xae, 0xcf, 0x2e, 0x37,
0x1d, 0x23, 0x36, 0x3c, 0xf2, 0x18, 0xe3, 0x0c, 0x00, 0xcd, 0x29, 0x43,
0xd8, 0x10, 0x1b, 0x3b, 0x58, 0xd2, 0xb4, 0x28, 0xd9, 0x3f, 0x7f, 0x54,
0x52, 0x1e, 0x00, 0xfb, 0xd5, 0x28, 0xdf, 0x47, 0xd4, 0x1f, 0xfa, 0x35,
0x3d, 0xf4, 0xdf, 0xd5, 0x2f, 0xf0, 0x01, 0x14, 0xfe, 0x0b, 0xd0, 0x0f,
0x0d, 0xc6, 0xe5, 0x00, 0xb3, 0xe5, 0xc6, 0x31, 0xe8, 0xfc, 0xee, 0x37,
0x57, 0xf8, 0xdb, 0xfc, 0xec, 0xdd, 0xdc, 0xdf, 0x06, 0xbe, 0xf8, 0x1b,
0x26, 0x51, 0x2e, 0x0b, 0x20, 0x3a, 0x2a, 0x35, 0xea, 0x22, 0xea, 0xe9,
0x54, 0xe5, 0xb3, 0x1d, 0xd4, 0xbc, 0xc5, 0x34, 0x32, 0x2c, 0x07, 0xd2,
0x3e, 0x1a, 0x24, 0xfb, 0x27, 0x36, 0x49, 0xf6, 0x31, 0x03, 0xde, 0x08,
0xba, 0xcf, 0xed, 0x47, 0x45, 0x47, 0xe6, 0x27, 0xdd, 0x7f, 0x3a, 0x54,
0xce, 0x07, 0xd0, 0xca, 0xf1, 0xec, 0xed, 0xf8, 0x0f, 0x29, 0x45, 0x25,
0x2b, 0xdd, 0x1a, 0xe5, 0x00, 0x7a, 0xaa, 0xd2, 0xa8, 0xeb, 0x04, 0xa4,
0xd8, 0x05, 0xf4, 0x9a, 0xd5, 0xed, 0xd6, 0xc1, 0x07, 0x5c, 0xfe, 0xf9,
0x60, 0x2e, 0xb2, 0xb2, 0xbf, 0x0f, 0xf7, 0xfc, 0x27, 0x13, 0x4c, 0x37,
0xc2, 0xda, 0x4e, 0x55, 0xee, 0xd7, 0x7f, 0x0f, 0x22, 0xb0, 0x31, 0x05,
0x5f, 0xa9, 0x1c, 0x16, 0xc5, 0x32, 0x28, 0x60, 0x1f, 0x3e, 0xfa, 0xe8,
0x45, 0x57, 0xef, 0xfb, 0xb8, 0xe2, 0xc9, 0x2c, 0xe2, 0xe6, 0xdd, 0x42,
0x6d, 0x41, 0x2f, 0x0c, 0x11, 0x18, 0x29, 0x3b, 0x7f, 0xf8, 0xfa, 0xf4,
0x48, 0x33, 0xef, 0xcb, 0x1a, 0x2c, 0x38, 0x24, 0xd7, 0x3f, 0xc2, 0x04,
0xc9, 0x27, 0xfa, 0x1a, 0x55, 0xe4, 0xfb, 0x01, 0x06, 0xf0, 0xec, 0x42,
0xec, 0xf4, 0x05, 0xc0, 0xf1, 0x1f, 0x24, 0x1c, 0xf0, 0x00, 0xc1, 0x99,
0x94, 0xf1, 0x27, 0x22, 0xf3, 0xf3, 0xf8, 0xe4, 0xfa, 0x62, 0xcd, 0xe1,
0xcb, 0xf0, 0x12, 0xf6, 0xff, 0x1a, 0x7f, 0x18, 0xdf, 0x45, 0xcd, 0x1c,
0x15, 0xb4, 0xb8, 0x19, 0x25, 0xc4, 0x7f, 0xbf, 0xf2, 0xb2, 0xe2, 0xf3,
0xf0, 0x62, 0xca, 0x00, 0xe5, 0xe2, 0x0b, 0xab, 0xf4, 0xfd, 0x43, 0x6f,
0xfe, 0xb4, 0xba, 0xa1, 0x44, 0x51, 0x2f, 0xee, 0x3b, 0x5b, 0x2b, 0xdb,
0x37, 0x3b, 0xe1, 0x15, 0x0f, 0x1b, 0x7f, 0xfa, 0x06, 0xa6, 0xfc, 0xc3,
0xfc, 0x07, 0x76, 0x3d, 0x2d, 0x0a, 0x51, 0x40, 0xf4, 0x30, 0x51, 0x6f,
0x34, 0x14, 0x0a, 0x0a, 0xb7, 0xd9, 0x2a, 0xcd, 0x25, 0xe6, 0x49, 0xde,
0x3a, 0xda, 0xfe, 0x14, 0x0a, 0x18, 0x64, 0xed, 0x5d, 0xcf, 0xda, 0xcd,
0xd8, 0x37, 0x1b, 0xf7, 0x4a, 0x22, 0xe4, 0x41, 0x09, 0x44, 0x0e, 0xd4,
0x59, 0xff, 0x5a, 0xa4, 0x70, 0x5e, 0x5e, 0xda, 0xb8, 0x01, 0xf5, 0xb4,
0xce, 0x71, 0x45, 0xcf, 0x3e, 0xf8, 0x73, 0xe2, 0xc6, 0xcb, 0x4d, 0xaf,
0x81, 0x99, 0xdb, 0x62, 0x39, 0x4b, 0x32, 0x0c, 0xdf, 0x3f, 0xe4, 0xd0,
0xf4, 0x20, 0xac, 0xbf, 0x5f, 0xae, 0x03, 0x74, 0x37, 0x4c, 0xe3, 0x40,
0x69, 0x43, 0xb0, 0x1b, 0x6b, 0x0f, 0xc0, 0xfa, 0xe1, 0x28, 0x14, 0x63,
0x81, 0xfd, 0x03, 0x26, 0xc3, 0x17, 0x37, 0x65, 0xa6, 0xc4, 0x15, 0x0e,
0xc0, 0xba, 0x5a, 0xed, 0xe8, 0x17, 0xd1, 0xe9, 0x06, 0x8c, 0x3b, 0xf2,
0x3d, 0x16, 0xa6, 0xb3, 0x5e, 0x87, 0x49, 0xc8, 0x28, 0x31, 0x6d, 0xe1,
0xe4, 0xc5, 0x42, 0xf3, 0x41, 0x45, 0x1d, 0xe1, 0xe4, 0x3f, 0xf4, 0x02,
0xe8, 0x86, 0x81, 0xd5, 0x42, 0xc5, 0x9e, 0xe9, 0x87, 0x23, 0xf0, 0xc2,
0x04, 0xb2, 0xe3, 0xf9, 0x0c, 0x6d, 0x43, 0xba, 0xd5, 0x38, 0x01, 0x3a,
0x35, 0x24, 0xaf, 0x20, 0x0c, 0x17, 0xf2, 0xbc, 0x3f, 0x0c, 0xdf, 0x36,
0xcc, 0x9c, 0x2f, 0x52, 0xe0, 0xd9, 0x64, 0xba, 0xae, 0x0a, 0x05, 0xce,
0xf7, 0x33, 0xf7, 0x94, 0x5f, 0x48, 0x02, 0xe1, 0x19, 0x9f, 0x29, 0xcb,
0xc8, 0xea, 0xb0, 0x28, 0xc5, 0x01, 0x1f, 0x31, 0xc0, 0x17, 0xd8, 0x47,
0xc7, 0x4b, 0x7f, 0x3d, 0x29, 0xd2, 0x38, 0xc9, 0x3d, 0x41, 0xe1, 0x3e,
0x3b, 0x2d, 0xd3, 0x7c, 0xba, 0xda, 0xd5, 0x30, 0xed, 0x4a, 0x3a, 0xd2,
0xbc, 0x05, 0x42, 0xd2, 0x14, 0xd8, 0xe0, 0xd1, 0xd3, 0x3d, 0xd1, 0x14,
0xfc, 0x4b, 0x0c, 0x02, 0xca, 0x82, 0x30, 0xdb, 0x87, 0xef, 0xda, 0xd8,
0xb4, 0xa2, 0xbc, 0xd0, 0xc1, 0xc8, 0x06, 0xa6, 0x3c, 0x0f, 0xf3, 0x2b,
0x0b, 0xd7, 0xef, 0xa7, 0x0b, 0x21, 0xff, 0x0d, 0xc1, 0x40, 0xd2, 0x4d,
0x40, 0xd0, 0x41, 0xff, 0x4b, 0xf0, 0x81, 0xd0, 0x27, 0x4d, 0xfb, 0xdb,
0xd7, 0x2b, 0xaf, 0xe6, 0xcf, 0xde, 0x02, 0x24, 0xfc, 0xf6, 0xcf, 0xb5,
0xb1, 0x0d, 0x40, 0xed, 0xc1, 0x5a, 0xc4, 0xad, 0xd2, 0xfd, 0x4e, 0x30,
0x08, 0xb6, 0x39, 0x81, 0xa5, 0xb3, 0x1c, 0x21, 0xfd, 0x4f, 0xcf, 0x2f,
0x08, 0xc0, 0x46, 0x33, 0xfa, 0x31, 0x48, 0x6c, 0x22, 0x55, 0x97, 0xdf,
0x5d, 0x27, 0xd3, 0xe4, 0xec, 0x11, 0xe3, 0x3b, 0x3f, 0xdb, 0x58, 0xb5,
0x2d, 0x2c, 0xd5, 0xff, 0x25, 0x0a, 0xe8, 0x22, 0xde, 0x2f, 0x9f, 0x16,
0xe1, 0x4b, 0xc1, 0xeb, 0xf9, 0x33, 0x1a, 0x2e, 0x45, 0xc8, 0xc9, 0x0e,
0x3f, 0x0b, 0xe5, 0xa1, 0x66, 0xad, 0x36, 0xa8, 0x19, 0x44, 0x14, 0x8d,
0x4d, 0x0d, 0xc0, 0x44, 0x1c, 0x1b, 0x81, 0x10, 0x32, 0xa9, 0xa1, 0x78,
0xfe, 0x37, 0xfe, 0x21, 0x02, 0x42, 0x30, 0xe8, 0xd0, 0x4b, 0x01, 0x96,
0xd7, 0xc7, 0x64, 0x6a, 0xb6, 0xd3, 0xf9, 0x57, 0x2f, 0x16, 0xa9, 0x25,
0xcc, 0x38, 0x28, 0xd2, 0x02, 0x19, 0xfa, 0xb4, 0xb9, 0x81, 0xb7, 0x16,
0xaf, 0xb3, 0x40, 0x3b, 0xaa, 0x2f, 0x07, 0xcf, 0x6a, 0xcf, 0x5e, 0x54,
0x03, 0x3c, 0xb9, 0xec, 0x07, 0xd9, 0x01, 0x1d, 0xbe, 0x4a, 0x16, 0x1c,
0x0d, 0xb2, 0x3c, 0x42, 0x24, 0xdf, 0x40, 0xc1, 0x56, 0xa9, 0xea, 0xdd,
0x37, 0xc2, 0x36, 0x18, 0xf2, 0xdc, 0x51, 0x33, 0x48, 0xfb, 0xe3, 0x67,
0x43, 0xd7, 0x7f, 0xe1, 0xa3, 0xc2, 0x19, 0xfa, 0xcf, 0xe0, 0xd6, 0x37,
0x27, 0xf9, 0xe5, 0x05, 0x41, 0xf1, 0x40, 0x01, 0x38, 0x48, 0x2d, 0x2e,
0xa9, 0x96, 0xeb, 0x2b, 0xc5, 0x44, 0x9b, 0xfc, 0xd8, 0x22, 0xf9, 0x1b,
0x03, 0x08, 0x39, 0xd7, 0xc3, 0x1f, 0xd4, 0xcf, 0x07, 0xc5, 0xb4, 0xee,
0xbc, 0x70, 0x3d, 0xe3, 0x4d, 0xaf, 0xef, 0x0c, 0xdf, 0xd1, 0xfa, 0x15,
0x0d, 0x03, 0xdc, 0xc9, 0xce, 0xb4, 0x17, 0xec, 0xcd, 0x36, 0x7f, 0x09,
0xf0, 0xdd, 0xd9, 0x3a, 0xeb, 0xda, 0xa8, 0xdc, 0xdd, 0x01, 0xe6, 0x50,
0xda, 0xe2, 0xf0, 0x41, 0x37, 0x37, 0x29, 0xbe, 0x4a, 0x21, 0xfa, 0x21,
0x17, 0xfa, 0x19, 0xdf, 0x12, 0x3a, 0xef, 0x1a, 0x1b, 0xb8, 0x81, 0xe3,
0xb0, 0x3c, 0x6d, 0xf0, 0x3f, 0xf7, 0xab, 0x5e, 0xcb, 0x9a, 0xa4, 0xb6,
0x14, 0x27, 0x94, 0x15, 0x76, 0x13, 0x6c, 0x30, 0x0c, 0xbc, 0xd2, 0xa9,
0xeb, 0x3e, 0x6c, 0xe5, 0x19, 0x1f, 0xd0, 0x36, 0x7d, 0x6f, 0x21, 0xe3,
0xf0, 0x14, 0x2b, 0xb8, 0x19, 0x10, 0x9c, 0x7d, 0x29, 0x7c, 0xd0, 0xf0,
0xc1, 0xa7, 0x5f, 0x30, 0x71, 0x52, 0x83, 0x06, 0x7c, 0xcd, 0xde, 0xcd,
0x11, 0x2e, 0xc6, 0x4b, 0x0d, 0x30, 0x23, 0xec, 0x5a, 0x43, 0x46, 0xbc,
0x56, 0x4a, 0xef, 0xcb, 0x7f, 0xcf, 0x46, 0x39, 0xd3, 0x50, 0xbd, 0xc7,
0xa3, 0xef, 0xd6, 0xb2, 0x27, 0x10, 0x18, 0xb1, 0x34, 0x6b, 0x28, 0xd7,
0x04, 0x3a, 0xb8, 0xad, 0xbc, 0x3f, 0xa2, 0xe0, 0x34, 0xc7, 0xef, 0xdd,
0x46, 0xe0, 0x04, 0x0c, 0xde, 0x10, 0xbe, 0xf5, 0x4b, 0x0c, 0x58, 0xcf,
0xd7, 0x7f, 0x18, 0x2d, 0xba, 0x26, 0xe1, 0xe2, 0x29, 0xf6, 0xf1, 0xc9,
0x2a, 0xb1, 0xb2, 0xa0, 0xde, 0x30, 0x59, 0xd1, 0x7f, 0xb3, 0x0a, 0xdd,
0x9f, 0x04, 0x3c, 0x39, 0xd4, 0x56, 0xdb, 0xbe, 0xd1, 0x4f, 0x21, 0xe9,
0x12, 0xd5, 0xdf, 0xce, 0xea, 0xf8, 0xd5, 0x01, 0x0a, 0xe7, 0xc3, 0x33,
0xce, 0x24, 0x1d, 0xd8, 0xef, 0x45, 0x1e, 0xfb, 0x1e, 0xbe, 0x03, 0x4d,
0x3f, 0x06, 0x0d, 0x92, 0x34, 0xb1, 0xdf, 0x0a, 0x6c, 0x49, 0x60, 0x2d,
0xe4, 0x01, 0x48, 0x60, 0xe9, 0x6b, 0x28, 0x03, 0xd4, 0x92, 0xd1, 0xd6,
0xaf, 0x18, 0x03, 0x4a, 0x7f, 0x11, 0x3c, 0x51, 0xd5, 0x3c, 0xe2, 0x23,
0x5e, 0x06, 0xe6, 0x99, 0x0c, 0xf8, 0x08, 0xfb, 0xa6, 0xb0, 0x83, 0xe4,
0x28, 0x28, 0xb3, 0x1e, 0xec, 0xfc, 0xf2, 0xf2, 0xef, 0x09, 0x43, 0xf1,
0xb1, 0x07, 0xb7, 0x40, 0x11, 0xb3, 0x81, 0x09, 0xdb, 0x4a, 0xc9, 0x20,
0x02, 0x1f, 0x1d, 0x96, 0xa8, 0xc2, 0xcd, 0x08, 0x0f, 0x1f, 0xbb, 0x15,
0xa0, 0xc1, 0x0a, 0xb6, 0x0f, 0x25, 0xd0, 0x2f, 0xf3, 0x06, 0xeb, 0xd6,
0xea, 0x23, 0x13, 0x4c, 0x07, 0xba, 0xf5, 0xc2, 0xc7, 0xd9, 0x26, 0x00,
0x1e, 0x2d, 0xe5, 0xd3, 0x07, 0x27, 0xdc, 0xdb, 0x11, 0x5c, 0x4e, 0xf6,
0xe1, 0xd6, 0xd5, 0x2b, 0x1e, 0x65, 0xc3, 0x08, 0x11, 0xe1, 0x17, 0x81,
0x0f, 0x07, 0xf6, 0xd4, 0x5d, 0x25, 0x28, 0x15, 0x51, 0xd5, 0x12, 0xab,
0xdf, 0x66, 0xb8, 0xf8, 0xc6, 0x2f, 0x38, 0xd6, 0x34, 0xca, 0x3b, 0x10,
0xc0, 0x25, 0x40, 0x67, 0xc1, 0xd5, 0x14, 0xc5, 0xd6, 0x44, 0xcf, 0x04,
0x2c, 0xe3, 0x7f, 0x0a, 0x52, 0x8c, 0xc1, 0xbf, 0x45, 0xa9, 0x91, 0x3d,
0x20, 0xef, 0x39, 0xbd, 0x06, 0xc6, 0xdc, 0x39, 0x0e, 0x04, 0xd4, 0xa0,
0xaf, 0xea, 0xaf, 0x29, 0x17, 0xd5, 0x03, 0xc4, 0x73, 0xf8, 0xb0, 0xda,
0x3e, 0x3b, 0xdd, 0x9b, 0xa8, 0xef, 0x39, 0xcc, 0xdd, 0x2d, 0x2e, 0xaf,
0x1a, 0x31, 0xa1, 0xdd, 0xd4, 0xca, 0x28, 0x2e, 0xf5, 0xa0, 0x3f, 0xdc,
0xed, 0x08, 0xd9, 0x85, 0xa0, 0xd6, 0x0c, 0x95, 0x90, 0xe4, 0x52, 0x3a,
0x1c, 0xd4, 0x35, 0x2f, 0xff, 0x63, 0xbc, 0xcb, 0x90, 0xbb, 0xc7, 0x8a,
0xa0, 0xb2, 0x9b, 0xf9, 0x81, 0x67, 0xaf, 0xc7, 0xa5, 0xa7, 0x89, 0x29,
0x90, 0x9c, 0xfe, 0x8b, 0x88, 0xe3, 0x28, 0x10, 0x2f, 0x00, 0x89, 0x22,
0x0f, 0xee, 0xc7, 0xc8, 0x18, 0xe0, 0xca, 0x48, 0x5a, 0xd2, 0xd8, 0xfa,
0xae, 0x02, 0xbf, 0x15, 0x2f, 0x81, 0xfb, 0x30, 0xc4, 0xec, 0xf5, 0xcb,
0x1b, 0xe0, 0xd1, 0xe4, 0xb3, 0xed, 0x20, 0xb3, 0xe9, 0xc4, 0xda, 0x21,
0x9d, 0xbd, 0xce, 0xc8, 0x95, 0x17, 0x16, 0xbf, 0xfe, 0xe8, 0xf0, 0x08,
0x0d, 0xa6, 0xde, 0xea, 0x19, 0xcf, 0xdd, 0xf1, 0xe0, 0xd7, 0x2d, 0x2f,
0x4b, 0xf4, 0x56, 0xfd, 0xb0, 0x62, 0x5c, 0xb7, 0x07, 0xef, 0x38, 0x97,
0x29, 0xe6, 0x15, 0xdb, 0x03, 0x2a, 0xfb, 0xaf, 0xe5, 0xc4, 0xc3, 0x59,
0x1b, 0x6b, 0xe5, 0xcf, 0xa1, 0xc9, 0x2d, 0x46, 0x52, 0x7f, 0x3c, 0x4a,
0x19, 0xf3, 0x05, 0xec, 0x48, 0xd4, 0xf3, 0x3f, 0xea, 0xf5, 0xec, 0x34,
0x07, 0x45, 0xb5, 0x08, 0xd6, 0x1b, 0xb5, 0x22, 0xf1, 0x3b, 0x2d, 0xd8,
0x39, 0x39, 0x1b, 0xf4, 0x3c, 0x08, 0x1a, 0xd0, 0x54, 0xde, 0x3e, 0x81,
0x0d, 0x29, 0xcc, 0x58, 0x08, 0x03, 0xf7, 0x04, 0x09, 0x24, 0xe1, 0xdc,
0x46, 0x1a, 0x14, 0x2d, 0x2f, 0x2d, 0xca, 0xd5, 0xaa, 0x56, 0x24, 0xff,
0xed, 0x4a, 0x45, 0x49, 0xff, 0xf1, 0xb8, 0x1f, 0x3b, 0x0d, 0xeb, 0x45,
0x46, 0xc7, 0xa3, 0x75, 0x5f, 0xe1, 0x10, 0x00, 0x13, 0xb4, 0xbc, 0x35,
0xf8, 0x5a, 0xf9, 0xa9, 0xf3, 0x0e, 0xde, 0xdf, 0x62, 0x3c, 0x21, 0xaa,
0xb4, 0x12, 0xc5, 0x4a, 0xdb, 0x63, 0x00, 0xa9, 0x20, 0x9a, 0x81, 0x34,
0xa3, 0x2d, 0xad, 0xb2, 0x55, 0xfe, 0xff, 0xd4, 0x04, 0x9f, 0x3e, 0x3b,
0x6e, 0x45, 0x0e, 0x07, 0xd1, 0x2f, 0x42, 0x04, 0xeb, 0x13, 0xf0, 0xdf,
0xab, 0xca, 0x3c, 0x24, 0x20, 0x26, 0xe6, 0x81, 0x0d, 0x0e, 0x2e, 0x5e,
0x4e, 0xeb, 0xfe, 0x28, 0x17, 0xae, 0x3c, 0x21, 0xc8, 0x40, 0xda, 0xdb,
0x1f, 0x26, 0xfa, 0x14, 0x10, 0x34, 0x4b, 0xeb, 0x17, 0x0c, 0x03, 0x42,
0x1e, 0x31, 0x13, 0x0f, 0x10, 0x21, 0xef, 0x49, 0xf0, 0x4b, 0x09, 0xd1,
0x1f, 0xae, 0x2e, 0xd8, 0x28, 0x42, 0xc7, 0xf1, 0xd3, 0x2c, 0x67, 0xf5,
0xc5, 0x5f, 0x7f, 0xd8, 0x3c, 0xca, 0xab, 0x59, 0x0c, 0xec, 0x9f, 0x51,
0x58, 0xcb, 0xf1, 0x88, 0xb7, 0x4c, 0xc8, 0x0b, 0x11, 0x06, 0xe0, 0x02,
0x9e, 0xa8, 0xd6, 0x8f, 0x01, 0xad, 0x3f, 0x5b, 0xc7, 0xe0, 0xc6, 0x64,
0x33, 0x06, 0x3f, 0xf4, 0xc2, 0xd5, 0x22, 0xfd, 0xa3, 0x0e, 0x4b, 0x5c,
0xf5, 0xbe, 0xfe, 0x72, 0xb7, 0xfa, 0xb7, 0x7d, 0x29, 0xbb, 0xb8, 0x05,
0xa1, 0x61, 0x28, 0xd0, 0xe1, 0x8b, 0xd9, 0xdc, 0x70, 0x87, 0x75, 0x8a,
0x9b, 0x1d, 0xd0, 0xd2, 0x52, 0xce, 0xae, 0x0b, 0xd5, 0x4b, 0x13, 0x14,
0x02, 0xaf, 0xa5, 0x33, 0x3b, 0x2d, 0x86, 0xc9, 0xa3, 0x7f, 0x0c, 0xf1,
0x4a, 0xd9, 0xd8, 0xdd, 0xdd, 0xc8, 0x4a, 0xf7, 0xde, 0x38, 0xa5, 0x06,
0x5f, 0xa9, 0xa4, 0x1c, 0xb7, 0xab, 0xbc, 0xca, 0xb6, 0x20, 0xb9, 0xfd,
0x0c, 0x34, 0x05, 0xd2, 0xea, 0xe6, 0xe0, 0x1f, 0x61, 0x5d, 0x81, 0xe8,
0x0d, 0xe2, 0x08, 0x2a, 0xf7, 0x39, 0x47, 0x39, 0x4c, 0x38, 0x28, 0xaa,
0x45, 0x68, 0xec, 0xe6, 0xe5, 0x3e, 0xf1, 0x3f, 0x1a, 0xf4, 0x0e, 0x3c,
0x6d, 0x12, 0x1b, 0xef, 0x4a, 0x2c, 0x13, 0xd9, 0x31, 0x0f, 0x81, 0x2e,
0xc3, 0xe9, 0x3d, 0xf6, 0xe6, 0xf4, 0x2b, 0xf2, 0x1b, 0x14, 0xff, 0x54,
0xbc, 0xc5, 0x3d, 0xdc, 0xcd, 0xba, 0x23, 0xbd, 0x5b, 0xff, 0x09, 0xb8,
0xba, 0xa2, 0x33, 0xc0, 0xe1, 0xd3, 0x09, 0x2c, 0xa3, 0x06, 0xf4, 0x2a,
0xe0, 0xdb, 0x21, 0xe9, 0x26, 0xf8, 0xe3, 0x0e, 0x3a, 0xf4, 0xc6, 0x0f,
0xae, 0x40, 0xaf, 0xe6, 0x03, 0x00, 0x01, 0x24, 0x8e, 0x76, 0x36, 0xcb,
0xb8, 0xe2, 0x6c, 0xea, 0xfe, 0x2c, 0xef, 0x13, 0x01, 0x3c, 0xa5, 0x0f,
0x4c, 0xda, 0x55, 0xfa, 0x0e, 0xee, 0x88, 0x54, 0x50, 0x69, 0xa7, 0x81,
0xbf, 0x3a, 0x91, 0x0b, 0xae, 0xcf, 0x9e, 0xad, 0xd5, 0x39, 0xbb, 0xb5,
0x23, 0xb4, 0x2a, 0xa3, 0x2d, 0xf5, 0x95, 0x4d, 0xd7, 0x57, 0x47, 0xdf,
0xa4, 0x51, 0x2e, 0x47, 0x7f, 0x16, 0x53, 0xcf, 0x31, 0x0a, 0xd6, 0xed,
0x04, 0x4d, 0xdb, 0xd5, 0x3f, 0x5c, 0xe4, 0x05, 0xf3, 0xc5, 0xf6, 0x4e,
0xde, 0x75, 0x1c, 0xc1, 0xbc, 0xea, 0x23, 0x2b, 0xc9, 0x01, 0x10, 0xc3,
0xdc, 0xe5, 0x28, 0x3c, 0x25, 0xeb, 0x32, 0x27, 0x32, 0x00, 0x3a, 0xcc,
0x2a, 0xdc, 0xe4, 0x29, 0x11, 0x23, 0x19, 0x08, 0xc8, 0x2e, 0x3e, 0xe3,
0xf6, 0x65, 0xf7, 0xcc, 0xb4, 0x06, 0x4b, 0x31, 0x65, 0x47, 0x32, 0x0c,
0x82, 0x9a, 0xd6, 0xa9, 0x3d, 0xdb, 0x10, 0x23, 0xc4, 0x2b, 0x26, 0xb8,
0xd0, 0xf4, 0x2a, 0x3a, 0x81, 0x41, 0xde, 0xc3, 0xb7, 0x23, 0xf6, 0xc0,
0x07, 0xc4, 0xfd, 0xff, 0xd1, 0x1d, 0xd4, 0x40, 0x10, 0x0e, 0x97, 0xb6,
0xa3, 0x9b, 0x3a, 0x64, 0x5c, 0x10, 0xe7, 0x2b, 0x16, 0xfc, 0x97, 0x71,
0xcb, 0xda, 0xaf, 0xc7, 0x57, 0x30, 0x4b, 0xe9, 0xf1, 0x16, 0xcb, 0xd0,
0x7f, 0x3c, 0x34, 0x34, 0x30, 0x23, 0xa9, 0xef, 0xd4, 0xbe, 0x50, 0xb6,
0xc7, 0x08, 0xeb, 0xe6, 0xe4, 0xd2, 0x12, 0x12, 0xb9, 0xb5, 0x22, 0x2c,
0xb5, 0x13, 0xc6, 0x02, 0xd0, 0xd7, 0x46, 0x57, 0x52, 0xd9, 0x1f, 0xd8,
0xca, 0xe9, 0x0a, 0xc2, 0xf3, 0x13, 0xf2, 0x4a, 0x08, 0xff, 0xe8, 0x57,
0x79, 0xff, 0x6e, 0x1c, 0x3b, 0x5b, 0x7f, 0x27, 0xaf, 0x1c, 0xf9, 0x16,
0xe1, 0xa0, 0x43, 0x13, 0x8e, 0xfa, 0xe4, 0x15, 0xc0, 0x11, 0x26, 0x3d,
0x47, 0x21, 0x07, 0x2b, 0xba, 0xc3, 0xe3, 0x36, 0x10, 0x39, 0x6c, 0x22,
0x08, 0x62, 0x42, 0x6a, 0xb0, 0x1a, 0x23, 0x28, 0xd5, 0x9b, 0x34, 0xd9,
0xe4, 0x1e, 0x1b, 0x31, 0x92, 0x16, 0x98, 0x46, 0xd0, 0xd5, 0xbb, 0x26,
0x43, 0xf1, 0x56, 0xe7, 0x51, 0x06, 0xf5, 0x09, 0xe1, 0x42, 0x23, 0xaf,
0x81, 0x99, 0x25, 0x1c, 0xae, 0x53, 0xf0, 0xeb, 0xde, 0xe7, 0x0f, 0xd2,
0xb2, 0x2a, 0x4d, 0x02, 0x39, 0x30, 0x98, 0x4d, 0x19, 0xdf, 0xc2, 0xe5,
0xcc, 0x03, 0xc8, 0xee, 0x1d, 0xdb, 0x29, 0x3c, 0x09, 0x47, 0x0e, 0x10,
0xec, 0x49, 0xbd, 0x16, 0x9c, 0xed, 0x2a, 0xad, 0xb7, 0x1c, 0xac, 0xb9,
0x69, 0x09, 0xe1, 0xfa, 0x3f, 0x28, 0x4c, 0xd8, 0xfa, 0x97, 0xed, 0xe1,
0x3f, 0x60, 0x02, 0xd3, 0xed, 0x47, 0x56, 0x9e, 0x91, 0xaf, 0x40, 0x91,
0x57, 0x51, 0xd6, 0x8b, 0xa6, 0xf2, 0xa2, 0x55, 0xe6, 0x57, 0x14, 0x89,
0x88, 0x0d, 0x8f, 0xf6, 0x81, 0x10, 0x17, 0xa0, 0x4c, 0x5b, 0xfd, 0xae,
0x01, 0xd0, 0xae, 0xdb, 0xdd, 0xbd, 0xfc, 0xba, 0x1f, 0xe7, 0x31, 0xf7,
0x26, 0xb6, 0xec, 0x08, 0x1b, 0xc5, 0xc6, 0xa4, 0xef, 0x22, 0xc7, 0xfa,
0x20, 0xd2, 0xb3, 0x36, 0xb5, 0xb5, 0xdc, 0x9a, 0x3d, 0x19, 0x3f, 0x04,
0x81, 0xc0, 0x23, 0xef, 0x44, 0xe0, 0xcb, 0xa2, 0xf9, 0xe5, 0x23, 0x1d,
0xe4, 0xcd, 0xbd, 0xc7, 0x39, 0xd8, 0xdf, 0x77, 0xf4, 0xe9, 0xa2, 0xbb,
0x18, 0x51, 0x9e, 0xe0, 0x45, 0xff, 0x27, 0xf0, 0xbb, 0x18, 0xf7, 0x3c,
0xb5, 0x18, 0xec, 0xc1, 0xb7, 0xf2, 0x06, 0xbc, 0x4b, 0xa9, 0xc7, 0xa0,
0x58, 0xa5, 0x2d, 0xf8, 0x4b, 0x52, 0x60, 0x18, 0x5e, 0x37, 0xec, 0x09,
0x4a, 0xdb, 0x49, 0x47, 0x26, 0x08, 0x24, 0xe5, 0x1c, 0x7f, 0xae, 0xd8,
0x1b, 0xf2, 0xbf, 0x59, 0xe8, 0xde, 0xe6, 0x12, 0x46, 0x1a, 0x57, 0xbb,
0x0b, 0x5d, 0x1c, 0x5f, 0xeb, 0xd9, 0x1c, 0x6d, 0x41, 0x23, 0xbc, 0x9d,
0xca, 0x92, 0xcf, 0xd6, 0xef, 0x27, 0x02, 0x66, 0x7f, 0xb6, 0xf6, 0x43,
0xf2, 0xed, 0x47, 0x0b, 0xd8, 0x58, 0xc7, 0x71, 0xdf, 0x6b, 0x10, 0x14,
0x5d, 0x2a, 0x2f, 0xf3, 0x1d, 0xd8, 0xf4, 0x47, 0x53, 0x4f, 0x94, 0x51,
0xe2, 0x7f, 0xdd, 0x33, 0xed, 0x37, 0x2a, 0x42, 0x31, 0xf1, 0xf7, 0xee,
0x0e, 0xac, 0x51, 0xcc, 0xca, 0x12, 0x30, 0x1d, 0x4a, 0x09, 0x62, 0x99,
0xf2, 0xdf, 0x11, 0xd2, 0xca, 0xd3, 0xdb, 0x1a, 0x13, 0x1a, 0x56, 0x19,
0xe8, 0x26, 0xd8, 0x28, 0x36, 0xbd, 0xfe, 0x27, 0x0f, 0x50, 0x48, 0x11,
0xcd, 0x2d, 0x28, 0x20, 0x2f, 0xce, 0x13, 0xc0, 0x16, 0x30, 0x3e, 0xbd,
0xde, 0x37, 0x09, 0xe3, 0x27, 0xc2, 0xcd, 0x34, 0x9b, 0xc2, 0x45, 0x62,
0xaa, 0xb1, 0x4c, 0xe7, 0x44, 0xe8, 0x42, 0x2e, 0x1e, 0x22, 0xf4, 0xf5,
0xdb, 0xf4, 0x37, 0x5d, 0xb9, 0x3a, 0x7f, 0xe6, 0x8b, 0xca, 0x19, 0x6d,
0xbc, 0xc5, 0x72, 0x0d, 0xd4, 0x18, 0xd2, 0x63, 0xa8, 0xfc, 0xdf, 0x43,
0x3d, 0x4c, 0x18, 0xaf, 0x10, 0x10, 0xd0, 0x40, 0xe8, 0x00, 0xac, 0x2e,
0xe9, 0x2c, 0xc1, 0x18, 0x4b, 0xb9, 0x88, 0xc3, 0xb4, 0x21, 0xde, 0x1a,
0x31, 0x1a, 0x0f, 0x2d, 0x2d, 0xa8, 0x02, 0x05, 0x13, 0x5c, 0x19, 0x1c,
0xcd, 0xb9, 0xb9, 0x0c, 0x1f, 0x29, 0xe6, 0x23, 0xe8, 0x7f, 0xb6, 0x6f,
0xa8, 0xde, 0x2e, 0x10, 0xd7, 0xac, 0xcd, 0xc5, 0x48, 0xf2, 0xad, 0xae,
0x1f, 0xe6, 0x05, 0xdc, 0xaf, 0xb8, 0xcd, 0xd0, 0xd2, 0x6c, 0x22, 0x0f,
0x16, 0xfd, 0x77, 0x10, 0xb2, 0x69, 0xac, 0x41, 0xac, 0xb1, 0x79, 0x55,
0xe8, 0x10, 0xcc, 0xd2, 0xe3, 0x47, 0x7f, 0x15, 0xa9, 0xfd, 0xa9, 0xd9,
0x38, 0x46, 0x18, 0x18, 0xda, 0xe9, 0x3f, 0xc9, 0xf9, 0xa8, 0x09, 0xa3,
0x30, 0x5f, 0xf3, 0xf1, 0xec, 0x1f, 0xdf, 0xf1, 0x5a, 0xe0, 0xb1, 0xcc,
0x13, 0xb8, 0x2a, 0xed, 0x45, 0x06, 0xc8, 0xaa, 0x1f, 0x57, 0xc4, 0x6b,
0x10, 0x24, 0xfa, 0xd8, 0x0d, 0x0a, 0xc7, 0x0f, 0x3c, 0x7d, 0xd0, 0xe3,
0xda, 0xd4, 0x5b, 0x36, 0x71, 0xe9, 0x7f, 0x0a, 0x21, 0x0a, 0xf6, 0x33,
0xaf, 0x0a, 0xf9, 0x45, 0xb9, 0x5b, 0x15, 0xf9, 0x21, 0xc0, 0x1a, 0x07,
0x6a, 0x7b, 0xb4, 0x20, 0x15, 0x1d, 0x16, 0x03, 0x91, 0x30, 0xf7, 0x37,
0xd9, 0x56, 0xad, 0xe9, 0xd9, 0xd5, 0x43, 0xd5, 0x22, 0x08, 0x55, 0xf7,
0x2a, 0x39, 0xdc, 0xd6, 0x31, 0xbc, 0x51, 0x99, 0xb9, 0x1d, 0x5d, 0xe1,
0x08, 0xc8, 0x7f, 0x24, 0x5e, 0xbd, 0xc4, 0x06, 0x19, 0xda, 0xc9, 0x2d,
0x05, 0x6b, 0x13, 0xcd, 0x13, 0x43, 0x32, 0x14, 0x75, 0x15, 0xd0, 0xba,
0xfc, 0x24, 0xe7, 0x5e, 0xd6, 0xd7, 0x96, 0x75, 0xef, 0xc9, 0x39, 0x34,
0x34, 0x1c, 0xfd, 0xf8, 0x81, 0x0d, 0x4f, 0xca, 0xea, 0xc1, 0xdd, 0x13,
0xef, 0xba, 0x42, 0x1d, 0xae, 0x78, 0x0a, 0x6a, 0xed, 0xda, 0xfb, 0xcb,
0xdf, 0xff, 0xfd, 0xf4, 0x2b, 0x45, 0xe0, 0x28, 0x65, 0x3e, 0xe6, 0x03,
0xde, 0xd6, 0xd5, 0x4c, 0x3a, 0xaa, 0x0e, 0xb2, 0xa5, 0xb5, 0x75, 0x6b,
0xee, 0xbd, 0xf8, 0xbb, 0xf7, 0x4f, 0x07, 0x04, 0x4a, 0x05, 0x37, 0xd2,
0xec, 0x00, 0x2b, 0x34, 0x37, 0xda, 0x3e, 0x24, 0xb0, 0x5f, 0x6a, 0x50,
0x5c, 0x38, 0x54, 0xe9, 0x11, 0xbc, 0xb7, 0x05, 0x81, 0xaa, 0x1f, 0x4f,
0xe3, 0x57, 0xef, 0x22, 0xa5, 0x50, 0x2e, 0xd2, 0xf8, 0xc8, 0x06, 0x5e,
0x0f, 0xcf, 0x42, 0xdb, 0x00, 0xde, 0xb6, 0x5f, 0x12, 0xde, 0x9d, 0xd3,
0x0e, 0x88, 0x2b, 0x28, 0x9e, 0x9b, 0x53, 0xd8, 0xa2, 0xa8, 0xa7, 0xec,
0x3f, 0x56, 0x36, 0x4f, 0x81, 0xe6, 0xf6, 0xd6, 0xe3, 0xa3, 0xcd, 0x72,
0xa4, 0xe8, 0x42, 0xe8, 0x39, 0x35, 0xfc, 0xbc, 0xcd, 0x5d, 0xab, 0xc0,
0x58, 0x0a, 0x31, 0xaf, 0x55, 0x20, 0x8f, 0x3e, 0x4d, 0xfb, 0x56, 0xd9,
0xc6, 0x83, 0xa3, 0xc8, 0x4e, 0xf7, 0x38, 0xc7, 0x19, 0x20, 0x5f, 0x5a,
0xcb, 0x4f, 0xbe, 0x9e, 0x45, 0x61, 0x30, 0xee, 0xd4, 0x9d, 0x0a, 0x0d,
0x09, 0xe6, 0x1a, 0x1a, 0xdc, 0x36, 0x7f, 0x42, 0xed, 0x32, 0x5d, 0xb3,
0x06, 0x99, 0x14, 0x97, 0x08, 0x60, 0x77, 0x1b, 0x1a, 0x84, 0xb3, 0x27,
0x4f, 0xde, 0x08, 0xb4, 0xf9, 0xd0, 0xa8, 0x3f, 0xf0, 0x47, 0x2d, 0xf9,
0xc1, 0xe8, 0xe4, 0x31, 0x99, 0x38, 0x20, 0x1f, 0x41, 0x28, 0x66, 0xba,
0x5b, 0xd8, 0xcb, 0xeb, 0x4d, 0x28, 0x28, 0x61, 0x27, 0x98, 0xff, 0xe8,
0xf5, 0xb1, 0xe9, 0x3c, 0xa2, 0x61, 0x35, 0x17, 0xcb, 0x49, 0x6c, 0x74,
0xe5, 0x69, 0x2f, 0xe8, 0x52, 0xff, 0xe8, 0xf7, 0xbd, 0x28, 0x58, 0x69,
0xba, 0xb7, 0x97, 0xb4, 0x3a, 0x63, 0x3c, 0x7f, 0x32, 0x57, 0x2e, 0x4b,
0xcc, 0x4e, 0xa7, 0xcc, 0xa0, 0xb1, 0x3a, 0x52, 0xf3, 0x83, 0x20, 0xeb,
0x09, 0x92, 0x7e, 0xb1, 0xc9, 0xd9, 0x37, 0xbd, 0x48, 0x62, 0x71, 0x1a,
0xb4, 0x07, 0x00, 0x55, 0x85, 0x93, 0xfa, 0xbb, 0x5a, 0x4c, 0xc5, 0x0d,
0x09, 0xa0, 0xb9, 0x28, 0x4c, 0x9e, 0xd2, 0x67, 0x02, 0xe5, 0x53, 0xc9,
0xe1, 0x6c, 0xb5, 0x41, 0xd1, 0xd0, 0x1c, 0xab, 0xda, 0x73, 0xc7, 0x00,
0x7f, 0x95, 0x38, 0x8b, 0x59, 0xe0, 0x3b, 0xb8, 0x51, 0x3c, 0xd7, 0xb1,
0xc6, 0x4b, 0x23, 0x7f, 0xe7, 0xef, 0x0a, 0x02, 0x10, 0x1b, 0xb2, 0xd0,
0xde, 0xa9, 0x23, 0xb7, 0x1e, 0xd6, 0xbe, 0x23, 0x5c, 0x5f, 0xfa, 0xb6,
0xe2, 0xcb, 0xd4, 0xa0, 0xb1, 0xe3, 0xbf, 0x30, 0x70, 0x4a, 0x3d, 0x0d,
0x42, 0xf9, 0x58, 0xe7, 0xed, 0x06, 0x2e, 0xfa, 0xcd, 0xe5, 0x81, 0xdb,
0x48, 0xc8, 0x40, 0x3d, 0x05, 0xdd, 0x91, 0x13, 0xbf, 0xf3, 0xc0, 0xe2,
0x01, 0xfe, 0x24, 0xdf, 0x2b, 0x30, 0xa9, 0xa3, 0xe9, 0x3d, 0xcc, 0x9f,
0xdd, 0xf7, 0xe5, 0xd8, 0x07, 0x34, 0x2b, 0xec, 0xbb, 0xc9, 0xd1, 0xae,
0xd2, 0x12, 0x23, 0xb5, 0xc1, 0xc4, 0xda, 0x1c, 0xbd, 0x32, 0xde, 0x36,
0x10, 0xcf, 0xdc, 0xa8, 0xd9, 0x9a, 0xf4, 0x00, 0xdb, 0xf7, 0x06, 0x42,
0xdb, 0x2e, 0x5b, 0xcc, 0x95, 0xaf, 0x7f, 0x43, 0x0a, 0x94, 0x23, 0xed,
0x41, 0xc3, 0xb0, 0x00, 0xeb, 0x47, 0x93, 0x3b, 0x41, 0xb2, 0x2a, 0x5b,
0xbe, 0x09, 0x5d, 0x6e, 0x38, 0xfa, 0x13, 0xf2, 0xe6, 0xf1, 0xe0, 0xa9,
0xfd, 0xd1, 0x4a, 0x4a, 0xad, 0x3b, 0xc3, 0x99, 0x24, 0xb2, 0xec, 0xcc,
0xdb, 0x16, 0x5f, 0xb1, 0x09, 0x9d, 0x40, 0xab, 0x18, 0xaa, 0xf7, 0xd3,
0xfb, 0x29, 0xdc, 0x56, 0x44, 0xe3, 0xa4, 0x12, 0x81, 0xd4, 0x26, 0xb4,
0x21, 0x11, 0x67, 0xbf, 0xbc, 0xd9, 0x24, 0x2c, 0xc1, 0x46, 0x61, 0x4a,
0xe6, 0xf4, 0xf3, 0xd4, 0x99, 0xe9, 0x9c, 0xdb, 0xad, 0x47, 0xf0, 0x2e,
0x9c, 0x48, 0x33, 0xb1, 0xe2, 0xa1, 0xf3, 0xd2, 0xb9, 0x27, 0xea, 0xdf,
0xb6, 0xf8, 0xd7, 0x8d, 0xde, 0x89, 0x15, 0x19, 0x04, 0xa0, 0xf2, 0x21,
0xea, 0x30, 0x2a, 0x5d, 0x0d, 0x3c, 0xee, 0x34, 0x2f, 0x2b, 0x01, 0x20,
0x02, 0xff, 0xe2, 0x08, 0xa4, 0x4a, 0x75, 0x7f, 0x14, 0x12, 0xfc, 0x2d,
0xb5, 0xcb, 0x69, 0x5c, 0xc8, 0xa9, 0x30, 0x4d, 0x12, 0x13, 0xab, 0x5f,
0x07, 0xc8, 0x4e, 0x5f, 0xe8, 0x03, 0xed, 0x1c, 0xc9, 0x51, 0x77, 0xf4,
0x03, 0x5f, 0x01, 0xa4, 0x06, 0xae, 0xe2, 0x2c, 0xef, 0xb2, 0xef, 0xdb,
0x19, 0xe0, 0xf7, 0x66, 0xf3, 0x7f, 0xdc, 0xcc, 0x12, 0xd6, 0xc7, 0xd3,
0xf5, 0x43, 0xb9, 0xb2, 0x02, 0x75, 0x74, 0xfe, 0x47, 0x19, 0xf8, 0xd2,
0xff, 0xee, 0x54, 0x29, 0xe5, 0x45, 0xc0, 0xe5, 0xb3, 0xfe, 0xd7, 0xb1,
0x41, 0xdc, 0x13, 0x3a, 0x1a, 0x12, 0x72, 0x3e, 0xad, 0xbb, 0x10, 0xd8,
0xc6, 0xdf, 0xce, 0xe8, 0xf7, 0xb0, 0xb8, 0xcc, 0x0b, 0x7f, 0x44, 0x13,
0x15, 0xf9, 0x62, 0x50, 0x43, 0x2d, 0xf2, 0xb6, 0x10, 0x37, 0x35, 0x96,
0x20, 0x1a, 0x6b, 0x6d, 0x4a, 0xc1, 0x22, 0x5b, 0x4f, 0x35, 0xc8, 0x1a,
0x24, 0xcf, 0xc0, 0xbb, 0xf4, 0x26, 0x33, 0xce, 0x38, 0x2e, 0x38, 0xcd,
0x13, 0x17, 0x55, 0xe2, 0xfa, 0xf4, 0xff, 0xff, 0x04, 0x00, 0x00, 0x00,
0x00, 0x01, 0x00, 0x00, 0x66, 0xfd, 0xff, 0xff, 0x56, 0x01, 0x00, 0x00,
0xbb, 0x01, 0x00, 0x00, 0xaf, 0x02, 0x00, 0x00, 0x23, 0x02, 0x00, 0x00,
0x8d, 0x01, 0x00, 0x00, 0x46, 0x00, 0x00, 0x00, 0x90, 0xfe, 0xff, 0xff,
0xab, 0xfe, 0xff, 0xff, 0x1d, 0x01, 0x00, 0x00, 0xb0, 0x02, 0x00, 0x00,
0xca, 0x01, 0x00, 0x00, 0x6a, 0x02, 0x00, 0x00, 0x37, 0x00, 0x00, 0x00,
0x60, 0x00, 0x00, 0x00, 0xc2, 0xff, 0xff, 0xff, 0x92, 0xff, 0xff, 0xff,
0x5c, 0x01, 0x00, 0x00, 0x73, 0xfe, 0xff, 0xff, 0xf7, 0xfe, 0xff, 0xff,
0x69, 0xfd, 0xff, 0xff, 0xe5, 0xff, 0xff, 0xff, 0xa2, 0x01, 0x00, 0x00,
0xac, 0x01, 0x00, 0x00, 0x85, 0x00, 0x00, 0x00, 0xdf, 0x00, 0x00, 0x00,
0xd3, 0xff, 0xff, 0xff, 0x7f, 0x01, 0x00, 0x00, 0x02, 0x01, 0x00, 0x00,
0xbf, 0x02, 0x00, 0x00, 0x90, 0x01, 0x00, 0x00, 0x99, 0xff, 0xff, 0xff,
0xf7, 0x01, 0x00, 0x00, 0x08, 0x03, 0x00, 0x00, 0xc2, 0x00, 0x00, 0x00,
0xa6, 0xff, 0xff, 0xff, 0x73, 0x01, 0x00, 0x00, 0x2a, 0x01, 0x00, 0x00,
0x9e, 0xff, 0xff, 0xff, 0xb6, 0x01, 0x00, 0x00, 0xa0, 0x02, 0x00, 0x00,
0xc3, 0xfe, 0xff, 0xff, 0x51, 0x00, 0x00, 0x00, 0xd7, 0xff, 0xff, 0xff,
0x4e, 0x00, 0x00, 0x00, 0x67, 0x01, 0x00, 0x00, 0x0b, 0x01, 0x00, 0x00,
0xd3, 0xfe, 0xff, 0xff, 0x54, 0xff, 0xff, 0xff, 0xbf, 0x00, 0x00, 0x00,
0x1c, 0x01, 0x00, 0x00, 0x22, 0x00, 0x00, 0x00, 0x36, 0xff, 0xff, 0xff,
0xb4, 0xfe, 0xff, 0xff, 0xae, 0xff, 0xff, 0xff, 0x7c, 0xff, 0xff, 0xff,
0x61, 0xff, 0xff, 0xff, 0x9e, 0x02, 0x00, 0x00, 0x19, 0x01, 0x00, 0x00,
0xab, 0xff, 0xff, 0xff, 0x7b, 0xff, 0xff, 0xff, 0x8a, 0x01, 0x00, 0x00,
0x25, 0x00, 0x00, 0x00, 0x16, 0x02, 0x00, 0x00, 0x06, 0xf6, 0xff, 0xff,
0x04, 0x00, 0x00, 0x00, 0x00, 0x08, 0x00, 0x00, 0xbb, 0x0f, 0xc7, 0x93,
0x4b, 0x89, 0x53, 0xb9, 0x6b, 0x6c, 0xb1, 0x98, 0x81, 0x4d, 0x1d, 0x25,
0x38, 0xf0, 0x50, 0xad, 0x9c, 0xf5, 0xff, 0x07, 0x26, 0x13, 0x54, 0x4f,
0x18, 0xbb, 0xca, 0x51, 0x38, 0x91, 0x5e, 0xd8, 0xf9, 0x0f, 0xc4, 0x43,
0xad, 0xa9, 0xb2, 0xd0, 0x15, 0x15, 0xb7, 0x12, 0xec, 0xad, 0xc9, 0x2c,
0xc3, 0x4e, 0x56, 0x05, 0xd8, 0x20, 0xbf, 0x1c, 0x47, 0x15, 0x2d, 0x23,
0xec, 0xe5, 0x44, 0x62, 0x35, 0x56, 0xe4, 0x70, 0xe8, 0xd1, 0x1e, 0x4f,
0xc2, 0x0a, 0xfc, 0x7f, 0x08, 0xf2, 0x9b, 0x58, 0xfe, 0xfa, 0x81, 0x1f,
0x0a, 0x28, 0x9b, 0x4e, 0x8b, 0x5f, 0xcc, 0xfb, 0xbb, 0xbc, 0x3a, 0xf8,
0x5f, 0x14, 0xe5, 0x6a, 0xa1, 0x9e, 0x0d, 0xea, 0x22, 0x1b, 0x29, 0x41,
0x53, 0xf0, 0x36, 0x06, 0xf9, 0x29, 0x39, 0x6c, 0x39, 0xda, 0x93, 0xe3,
0xb1, 0xd2, 0x4c, 0xc1, 0x4a, 0x37, 0x12, 0xed, 0x1b, 0xed, 0xda, 0x22,
0xbc, 0x21, 0xe3, 0xdf, 0xf1, 0xe4, 0xd7, 0xd1, 0x55, 0x48, 0xe6, 0x4e,
0x16, 0x01, 0x4d, 0x9f, 0x7f, 0x4e, 0x49, 0x97, 0xbb, 0x77, 0x0d, 0xb6,
0xce, 0xce, 0xc7, 0x53, 0xdf, 0xd0, 0xbc, 0x5e, 0x9c, 0x54, 0x0b, 0x49,
0xaa, 0x60, 0x3a, 0x7e, 0x0a, 0x8f, 0x2f, 0x04, 0xca, 0xb1, 0xf3, 0x2e,
0x0c, 0x3a, 0x34, 0x5a, 0x6d, 0xf6, 0xd5, 0x60, 0xb4, 0x6a, 0x7f, 0x32,
0x55, 0xed, 0xf5, 0xeb, 0xeb, 0x3d, 0x52, 0xdd, 0xdf, 0xff, 0xe7, 0x10,
0xca, 0x27, 0x46, 0xf0, 0xc0, 0x3f, 0xbc, 0xd0, 0x39, 0x01, 0xb3, 0x49,
0xca, 0x19, 0xf2, 0x2f, 0xd7, 0x38, 0xb5, 0xf3, 0x7f, 0xf6, 0xa2, 0x08,
0xab, 0xea, 0xea, 0x24, 0x3a, 0x2b, 0x50, 0xd5, 0xe9, 0x31, 0x2a, 0xf9,
0x1c, 0xe8, 0x0e, 0x54, 0xde, 0xc6, 0x29, 0x22, 0x07, 0x2e, 0x4b, 0x3e,
0xd3, 0x27, 0x1d, 0x38, 0x06, 0x28, 0x0e, 0xbb, 0xbf, 0x33, 0x4d, 0x49,
0x15, 0x04, 0xe3, 0xf8, 0xa6, 0xde, 0x43, 0x2f, 0xb5, 0x46, 0x16, 0xc8,
0xa2, 0xec, 0xa2, 0x43, 0xd8, 0xa5, 0x7f, 0xe2, 0x16, 0x5f, 0xd0, 0x12,
0xec, 0x4c, 0xe3, 0xd5, 0x30, 0xd6, 0x2d, 0x00, 0xde, 0x05, 0x33, 0xff,
0x42, 0xf8, 0xde, 0xde, 0x6d, 0x11, 0xd7, 0x2d, 0x16, 0x5c, 0xef, 0x47,
0xb7, 0xfe, 0x5b, 0x79, 0xf4, 0x1c, 0x34, 0x0a, 0x0a, 0x23, 0xef, 0xe9,
0xf5, 0xfd, 0x69, 0xde, 0x52, 0xd6, 0xd7, 0xe2, 0xf7, 0xf0, 0xc9, 0x40,
0xde, 0xd8, 0xca, 0x7f, 0xb8, 0xf7, 0x4b, 0xaa, 0x2d, 0x09, 0x59, 0xf0,
0xe1, 0x32, 0xe8, 0x32, 0x3e, 0xed, 0x10, 0x28, 0x07, 0x48, 0x08, 0xc2,
0xae, 0x25, 0x6d, 0x4f, 0x4c, 0xd4, 0x01, 0xfc, 0x16, 0x59, 0x11, 0xf8,
0x0d, 0x4f, 0x2b, 0xd9, 0xf6, 0xcc, 0x57, 0x4e, 0xa2, 0xb0, 0x8e, 0xab,
0xdb, 0x72, 0xd9, 0x70, 0xb1, 0xec, 0x44, 0x60, 0xc5, 0x44, 0xd9, 0x5e,
0x68, 0x29, 0x3e, 0xa4, 0xba, 0x2d, 0x5d, 0xc1, 0x39, 0x4d, 0x31, 0x7f,
0x51, 0x3f, 0xeb, 0xa9, 0x5f, 0x6b, 0xdd, 0x39, 0xf7, 0x9a, 0xe2, 0x56,
0x6b, 0xe8, 0xda, 0xcf, 0x6c, 0x34, 0xfa, 0x9d, 0x4f, 0xcf, 0x30, 0xdf,
0x39, 0xc9, 0xe9, 0x62, 0x58, 0xe4, 0x5b, 0x02, 0x2e, 0x40, 0x97, 0xda,
0x46, 0xe3, 0xab, 0xcf, 0x04, 0xf1, 0xa8, 0xf8, 0x33, 0x64, 0xda, 0x96,
0x18, 0x2c, 0x49, 0xe6, 0xc5, 0x3f, 0x06, 0xf6, 0xed, 0x35, 0x02, 0x06,
0x32, 0x5d, 0x4d, 0xfa, 0x2f, 0x6a, 0xf8, 0xbb, 0xf7, 0x88, 0xf2, 0x46,
0x28, 0xe1, 0x16, 0x47, 0x7f, 0xd1, 0x75, 0xd6, 0x68, 0xa0, 0x23, 0x30,
0x03, 0x2b, 0x55, 0xd8, 0xc1, 0xc9, 0xd8, 0x4f, 0x45, 0x16, 0xfa, 0x53,
0x40, 0x0e, 0xe5, 0x99, 0xaf, 0xf0, 0xb4, 0x2b, 0x5c, 0x78, 0x63, 0x7f,
0xca, 0xe4, 0x08, 0x26, 0x93, 0x64, 0x52, 0x53, 0xe2, 0x04, 0x46, 0xb2,
0xde, 0xf6, 0x86, 0xb3, 0xd6, 0x02, 0x01, 0x10, 0x1b, 0x27, 0x29, 0x21,
0xca, 0x5f, 0xcf, 0xd8, 0xe9, 0x28, 0x11, 0x63, 0xc4, 0xe7, 0xfd, 0xda,
0x07, 0x34, 0xee, 0x00, 0x46, 0x75, 0x64, 0x69, 0xe4, 0x34, 0xce, 0xeb,
0xe3, 0x9b, 0xd9, 0xa1, 0xde, 0xed, 0x44, 0xe4, 0x27, 0x0a, 0xf0, 0xde,
0x3c, 0xb4, 0xf6, 0xc9, 0xdb, 0x3c, 0x67, 0x37, 0x34, 0xce, 0x4d, 0xaf,
0xed, 0xce, 0x12, 0x17, 0xd5, 0xc9, 0x68, 0x65, 0xea, 0x1b, 0x32, 0x36,
0x5a, 0x0f, 0x22, 0x3a, 0x61, 0x46, 0x2a, 0x13, 0xc5, 0x11, 0x6a, 0x33,
0x46, 0x20, 0x1b, 0xde, 0xe9, 0xec, 0x46, 0xbd, 0x52, 0xc6, 0x28, 0x16,
0x18, 0x79, 0xd2, 0xe2, 0x27, 0x7f, 0x71, 0x64, 0x34, 0x1b, 0xc8, 0xd3,
0xfd, 0x3f, 0x5a, 0x62, 0x6b, 0xc9, 0x3e, 0x54, 0xdb, 0xe4, 0x23, 0x06,
0x5a, 0xc2, 0x44, 0x19, 0xf9, 0xbe, 0x0d, 0xfc, 0xca, 0x5d, 0x07, 0x4a,
0x23, 0xde, 0x81, 0x24, 0x4e, 0x29, 0xfb, 0xbf, 0x9f, 0x5a, 0xe1, 0x5b,
0x0d, 0x11, 0x4a, 0xf8, 0xe0, 0xee, 0xd3, 0x71, 0xbe, 0x3c, 0xe4, 0x03,
0x1f, 0x14, 0xe0, 0x55, 0xbf, 0x02, 0x0d, 0x1f, 0x1f, 0x68, 0xe8, 0xbb,
0x09, 0x67, 0x52, 0x39, 0xc1, 0xe6, 0x0f, 0x65, 0xec, 0x53, 0x81, 0xff,
0xd6, 0x08, 0x5d, 0xbb, 0x52, 0x49, 0xb4, 0x07, 0x03, 0xc8, 0xa3, 0x15,
0x0d, 0x0a, 0x23, 0xaa, 0xb8, 0x7e, 0xee, 0x15, 0x30, 0xf7, 0x83, 0x62,
0xc2, 0xb9, 0xe0, 0xa6, 0x34, 0x7a, 0xb1, 0x3d, 0x15, 0x41, 0x52, 0x1f,
0x83, 0x64, 0xc0, 0xc3, 0xe2, 0xa2, 0x92, 0x97, 0x0e, 0xfa, 0xfe, 0xeb,
0x53, 0x26, 0xcd, 0x9d, 0xdf, 0xe0, 0x1c, 0xb5, 0x16, 0xf8, 0x20, 0xf2,
0x17, 0xbf, 0x1d, 0x52, 0xa2, 0x96, 0x83, 0x10, 0x47, 0xfe, 0xdf, 0xce,
0xec, 0x08, 0xcc, 0x43, 0x43, 0x8c, 0x2b, 0x21, 0x1b, 0x06, 0x7f, 0x43,
0xb3, 0xb3, 0x83, 0xe6, 0x25, 0x28, 0x55, 0xd2, 0xc2, 0x8b, 0xe6, 0xda,
0xae, 0x0d, 0xa0, 0xca, 0x37, 0xb6, 0x93, 0x36, 0x58, 0xed, 0xe6, 0x53,
0x55, 0xf3, 0xb7, 0x29, 0x48, 0xa6, 0x41, 0xbd, 0x62, 0x8e, 0xe5, 0x1c,
0x3a, 0xa9, 0x7f, 0x94, 0x37, 0xc2, 0xcb, 0x38, 0x41, 0x77, 0xba, 0xe0,
0x4b, 0xb7, 0x2b, 0xe5, 0xb4, 0xd6, 0x63, 0xed, 0x4b, 0xc0, 0x62, 0x2c,
0xeb, 0x1a, 0xd0, 0xe0, 0x5b, 0x43, 0x0a, 0x64, 0x67, 0x8d, 0xc6, 0x53,
0x6b, 0x43, 0xd0, 0xce, 0xd7, 0x48, 0x2a, 0xfd, 0xf5, 0x30, 0xd4, 0x33,
0xbe, 0x34, 0xf1, 0x1f, 0xd0, 0x34, 0xc5, 0x07, 0x56, 0x24, 0x05, 0x45,
0x1e, 0xa5, 0xba, 0x98, 0x03, 0x24, 0xa6, 0x1f, 0x3c, 0x7f, 0x71, 0xd5,
0xd0, 0xd1, 0x31, 0x0f, 0xeb, 0x0c, 0x36, 0x06, 0x41, 0x1f, 0xce, 0xab,
0xad, 0xdd, 0x9d, 0xa2, 0x67, 0x2f, 0x52, 0x57, 0xb6, 0x2b, 0xc8, 0xf9,
0xf4, 0x1e, 0x54, 0xba, 0x05, 0x5d, 0xc4, 0x26, 0xeb, 0x33, 0xef, 0xda,
0x1b, 0xbc, 0x31, 0x1d, 0xb5, 0x57, 0xac, 0x2c, 0x1f, 0x31, 0x25, 0x17,
0xf0, 0xca, 0xbb, 0x3a, 0xe7, 0x6a, 0xce, 0x39, 0x4a, 0x4f, 0x2e, 0xcc,
0x31, 0x5e, 0xc4, 0x73, 0x67, 0xb4, 0x32, 0x15, 0x42, 0xdd, 0x3c, 0xf3,
0xf1, 0xb7, 0x13, 0x4b, 0x06, 0x43, 0x36, 0x32, 0xcb, 0x81, 0x38, 0x30,
0x7a, 0xf3, 0xb3, 0x37, 0xc4, 0x21, 0x8e, 0xd8, 0x94, 0xeb, 0x3f, 0x57,
0x5c, 0xc7, 0x1b, 0x93, 0x36, 0x93, 0xb7, 0xaf, 0xd9, 0x58, 0x75, 0x40,
0xf0, 0xac, 0x1e, 0xa4, 0x49, 0x2a, 0x81, 0x41, 0xa4, 0xaf, 0xee, 0x39,
0x99, 0x2b, 0x61, 0xb1, 0x1c, 0x4f, 0x42, 0x14, 0x71, 0x53, 0x43, 0x71,
0x5f, 0x3a, 0x35, 0xf3, 0x03, 0x16, 0x22, 0x90, 0x9d, 0xbe, 0xb5, 0x50,
0xf5, 0x62, 0xbf, 0x98, 0x46, 0x9c, 0xd9, 0x81, 0xd9, 0x97, 0x3a, 0x5d,
0x08, 0x6b, 0x37, 0xc3, 0x0e, 0x4b, 0x47, 0xd5, 0xfc, 0xfe, 0x5c, 0xa1,
0x90, 0xb3, 0x2b, 0x46, 0x56, 0x5b, 0xd4, 0xd1, 0x3f, 0xc4, 0xf9, 0x26,
0x22, 0xfa, 0xb7, 0x1b, 0x58, 0xde, 0xe0, 0xd1, 0xb1, 0x48, 0x1d, 0xa9,
0x17, 0x9b, 0x11, 0x50, 0x30, 0xda, 0x54, 0x47, 0x0d, 0xf2, 0xfb, 0xe4,
0xd7, 0xc6, 0x60, 0xbc, 0x28, 0x7e, 0xc9, 0x01, 0xa1, 0xbb, 0x8a, 0x37,
0x34, 0xdc, 0xd8, 0x33, 0xf3, 0x5f, 0xc4, 0x8a, 0xf5, 0x5f, 0x4e, 0x97,
0xaa, 0x30, 0xb7, 0x51, 0x40, 0xe7, 0xa8, 0x4e, 0x81, 0x3f, 0x41, 0xdd,
0x98, 0x9e, 0xb7, 0xe8, 0x4e, 0x29, 0xbe, 0xd7, 0x2b, 0x14, 0xce, 0xc6,
0x58, 0xd3, 0xcd, 0x1f, 0x9e, 0xa6, 0x66, 0x95, 0x55, 0xcf, 0x5b, 0xe4,
0x4d, 0x68, 0x90, 0xad, 0xb6, 0xc5, 0xd4, 0xbc, 0x21, 0x08, 0x54, 0xac,
0x11, 0x2a, 0xa8, 0x41, 0x78, 0x4a, 0x52, 0x40, 0x4b, 0xda, 0x56, 0x57,
0x2b, 0xe3, 0x46, 0xe5, 0xea, 0x8e, 0x75, 0x20, 0x62, 0x0e, 0x31, 0x92,
0x94, 0x30, 0xb4, 0xea, 0x7f, 0xe3, 0x1a, 0x38, 0xc7, 0x09, 0xe5, 0xac,
0x04, 0x6e, 0x70, 0x2c, 0x56, 0x25, 0xa0, 0xd8, 0xdd, 0xfb, 0xb5, 0x62,
0xeb, 0xc5, 0x0f, 0x31, 0x0b, 0x3b, 0xda, 0xd5, 0xc5, 0x6c, 0xb9, 0x27,
0x14, 0x2f, 0xd5, 0x03, 0xdb, 0x18, 0x1e, 0x18, 0xb6, 0x06, 0x8f, 0x27,
0x7f, 0xf4, 0x29, 0x65, 0x95, 0xeb, 0x85, 0x3a, 0xad, 0x47, 0xa7, 0x5e,
0xde, 0x30, 0x17, 0x42, 0x42, 0xc8, 0x46, 0x20, 0x0a, 0xae, 0xf2, 0x2d,
0xd8, 0x52, 0xcf, 0xd8, 0xcc, 0x26, 0x8c, 0x31, 0xec, 0xfb, 0x35, 0xd3,
0xb3, 0x1f, 0xb7, 0x6e, 0x30, 0x5e, 0x61, 0xec, 0x90, 0x05, 0x04, 0x34,
0x93, 0x81, 0xf9, 0x6e, 0xb8, 0x51, 0xe7, 0x4f, 0xc5, 0x82, 0x1c, 0x07,
0x4c, 0x01, 0x76, 0xd2, 0x1a, 0xd8, 0xde, 0x1e, 0x24, 0x38, 0x5d, 0x3c,
0x1a, 0x39, 0x57, 0x08, 0xc5, 0xe3, 0xe0, 0x5b, 0x5b, 0x2d, 0x55, 0xd9,
0x65, 0x0c, 0x33, 0x46, 0x4d, 0x32, 0xd0, 0x3f, 0x31, 0x5b, 0x9e, 0xb8,
0x17, 0xc7, 0x32, 0x12, 0x81, 0xef, 0xc8, 0xbd, 0x50, 0x97, 0x92, 0x4e,
0x17, 0xd6, 0x51, 0x96, 0x3f, 0xb6, 0x62, 0xb1, 0x48, 0x0d, 0x67, 0x36,
0xd5, 0x17, 0x03, 0x17, 0x05, 0xe1, 0x3e, 0x05, 0xc3, 0x26, 0xc6, 0xf1,
0x3e, 0x14, 0x4c, 0xfa, 0x35, 0x05, 0xdb, 0x25, 0xc4, 0x26, 0xb9, 0x9d,
0x36, 0x08, 0x4e, 0xc0, 0x64, 0x0b, 0x43, 0xff, 0xb5, 0xf5, 0xdc, 0xa2,
0x26, 0xb4, 0x11, 0xb4, 0x21, 0x69, 0x70, 0x03, 0xe2, 0xe2, 0xfb, 0x19,
0x06, 0x13, 0xde, 0x4b, 0x2c, 0x24, 0x43, 0xe8, 0xd3, 0xb8, 0xbf, 0x5e,
0xd2, 0xb2, 0xdb, 0x49, 0x51, 0xb3, 0x3d, 0x42, 0x0f, 0x1d, 0x4c, 0xa3,
0x26, 0xaf, 0xc6, 0x7f, 0xcf, 0x33, 0x02, 0x0f, 0x03, 0x1c, 0xe3, 0x0b,
0xad, 0x6e, 0x6f, 0xa7, 0x14, 0xe7, 0xde, 0xf6, 0x48, 0x71, 0x27, 0x4e,
0x30, 0xe2, 0x47, 0x60, 0x3d, 0x6c, 0xdc, 0x08, 0x6c, 0x3c, 0x1d, 0x0d,
0x3e, 0xe8, 0xe0, 0xb9, 0x8f, 0xa2, 0xf9, 0xc5, 0xef, 0x7f, 0x0b, 0x67,
0xd6, 0x92, 0x15, 0x28, 0x49, 0xf6, 0xca, 0x8c, 0x4b, 0x8a, 0xf0, 0x3d,
0xe7, 0xce, 0xf1, 0xe0, 0x74, 0xd8, 0xcd, 0x33, 0x0d, 0x3d, 0x01, 0xc7,
0x9f, 0x52, 0xab, 0x6f, 0x15, 0xd6, 0xe4, 0xca, 0x4e, 0x0d, 0x38, 0xc9,
0x8e, 0x23, 0x98, 0x3a, 0x13, 0x38, 0x3e, 0x49, 0xc9, 0xb6, 0x3a, 0xe3,
0x14, 0x13, 0xf8, 0xa9, 0x5a, 0x42, 0x00, 0xbe, 0x01, 0xf5, 0xcb, 0xc2,
0x1d, 0x3b, 0xd6, 0xfa, 0x57, 0x17, 0xc8, 0x6e, 0x39, 0x26, 0x43, 0x36,
0x7f, 0x26, 0x15, 0xc7, 0xe9, 0xf7, 0x42, 0x32, 0xba, 0x34, 0xa7, 0xbf,
0x3a, 0xa0, 0xab, 0xe3, 0x31, 0x36, 0x46, 0x39, 0x1a, 0x56, 0x1d, 0x96,
0x08, 0x57, 0xd2, 0x1b, 0x48, 0x12, 0xc3, 0xf4, 0xb6, 0x4f, 0xb8, 0x9d,
0xf9, 0x9a, 0xcc, 0x09, 0xe1, 0x1d, 0x01, 0x48, 0xec, 0x06, 0xa9, 0xf3,
0x89, 0x9c, 0x54, 0xdc, 0xf1, 0x58, 0x32, 0x56, 0x04, 0xe2, 0x3b, 0xa0,
0x95, 0xa8, 0x23, 0x2b, 0xda, 0xf9, 0x41, 0xc7, 0xc8, 0xde, 0x4e, 0x1c,
0x5c, 0xe8, 0x2a, 0xab, 0x25, 0x2a, 0xd1, 0xa2, 0x1d, 0x5f, 0x61, 0x0d,
0x9f, 0x81, 0xa9, 0xfb, 0x47, 0x20, 0x5e, 0xab, 0xc0, 0x21, 0xeb, 0x90,
0xe6, 0x98, 0xc4, 0x35, 0xea, 0x44, 0x7f, 0x57, 0x2c, 0xb5, 0xe9, 0xb3,
0x68, 0x36, 0xf9, 0x2a, 0xca, 0xef, 0x11, 0xff, 0xbf, 0x3d, 0x21, 0x33,
0xd3, 0xdb, 0x53, 0xc4, 0xae, 0x0b, 0xc4, 0x21, 0x00, 0x46, 0x32, 0x47,
0xd8, 0xb8, 0x40, 0xe0, 0xf1, 0x5d, 0x5b, 0x07, 0xf3, 0x48, 0xa9, 0x41,
0x69, 0xfa, 0x44, 0xa2, 0x53, 0xd7, 0x1b, 0xc4, 0xac, 0xab, 0x31, 0xf9,
0x12, 0x43, 0xcd, 0xc9, 0x86, 0xe5, 0x6b, 0x3c, 0x21, 0x33, 0x34, 0x27,
0xde, 0x37, 0x31, 0x2a, 0xfe, 0xe5, 0xf0, 0x40, 0x81, 0xb0, 0xf8, 0x3b,
0x5a, 0x6f, 0x11, 0x4e, 0xb2, 0x3d, 0xad, 0xfd, 0xef, 0xfc, 0x2e, 0x4f,
0xd6, 0xbb, 0xaa, 0x24, 0x9d, 0x11, 0xbd, 0x22, 0x4e, 0x48, 0xb4, 0x23,
0xb6, 0xe2, 0xa6, 0x52, 0x42, 0x4a, 0x45, 0x58, 0xcd, 0x10, 0xd8, 0xea,
0x35, 0xec, 0x43, 0xff, 0x0c, 0x1b, 0xd2, 0x1f, 0xc2, 0xd5, 0xe9, 0x43,
0x51, 0xee, 0xf5, 0xd8, 0xff, 0xf2, 0x30, 0xc6, 0xac, 0x4d, 0x9d, 0xa1,
0x09, 0xca, 0x7f, 0x38, 0xa6, 0x38, 0xe7, 0xc2, 0x66, 0x46, 0x32, 0x4d,
0xf5, 0x12, 0xc0, 0x43, 0x7a, 0x3d, 0x16, 0x03, 0xf5, 0xd1, 0x2e, 0xef,
0x48, 0x68, 0x3f, 0xe9, 0x63, 0xc0, 0x38, 0x4f, 0x2a, 0x04, 0xb0, 0x97,
0x3d, 0xca, 0xcf, 0x3a, 0x0a, 0xdc, 0xad, 0xe5, 0x62, 0x36, 0xaa, 0xef,
0x0a, 0xd2, 0x09, 0x90, 0x5a, 0x40, 0x62, 0x1f, 0xb9, 0x1c, 0xc3, 0x7c,
0x10, 0xca, 0x28, 0x26, 0x4e, 0xf0, 0x0d, 0xbc, 0xf6, 0x7c, 0x7a, 0x9d,
0x6c, 0xf3, 0x86, 0xb6, 0xad, 0xc2, 0x15, 0x5c, 0x61, 0xd6, 0x7f, 0x32,
0x28, 0xef, 0xe6, 0xe2, 0xcd, 0x2d, 0xb1, 0xb0, 0x4e, 0xbd, 0x1e, 0xba,
0xab, 0xc1, 0x13, 0xac, 0x44, 0x32, 0x05, 0x49, 0x4e, 0xcb, 0x6d, 0x20,
0x1b, 0x4b, 0xd8, 0xa2, 0xb7, 0x26, 0xdd, 0xca, 0x44, 0x4c, 0x51, 0x81,
0xbb, 0x0b, 0xe1, 0x60, 0x33, 0x79, 0xad, 0xda, 0xfa, 0xa9, 0x5c, 0x68,
0x6c, 0x1f, 0x2e, 0xc8, 0x57, 0x58, 0x54, 0x30, 0x2d, 0x49, 0x3a, 0xc9,
0xea, 0xd1, 0x0a, 0xff, 0x71, 0xb6, 0x2b, 0xab, 0x4c, 0x94, 0x35, 0x48,
0x63, 0xed, 0x41, 0xfe, 0xfc, 0xc0, 0xac, 0xdf, 0x25, 0xb8, 0x4f, 0xe4,
0x88, 0x4d, 0xd3, 0x45, 0x1a, 0xd2, 0x1c, 0xa0, 0x9d, 0xf4, 0xc8, 0x35,
0xe8, 0x92, 0xd8, 0xf6, 0x9f, 0xa1, 0x45, 0xde, 0xbd, 0xe4, 0x2f, 0xd3,
0x4b, 0xc0, 0x35, 0x00, 0x5e, 0x3c, 0x1b, 0xd8, 0x3e, 0x21, 0x55, 0xc1,
0x24, 0x5f, 0x5c, 0xf4, 0x46, 0x11, 0x81, 0x5b, 0xee, 0x05, 0x25, 0xe5,
0xa1, 0x56, 0xe1, 0xfb, 0x11, 0x51, 0x15, 0xff, 0xc3, 0xad, 0x1d, 0xf0,
0xd4, 0xd9, 0xae, 0xbb, 0x23, 0x1b, 0x19, 0xc8, 0xde, 0x31, 0x23, 0x22,
0x0f, 0xf8, 0x3d, 0x85, 0x12, 0xfe, 0xff, 0xff, 0x04, 0x00, 0x00, 0x00,
0x80, 0x00, 0x00, 0x00, 0x81, 0xff, 0xff, 0xff, 0xa9, 0xfd, 0xff, 0xff,
0x8d, 0xfd, 0xff, 0xff, 0x0a, 0x03, 0x00, 0x00, 0x17, 0x04, 0x00, 0x00,
0x09, 0x03, 0x00, 0x00, 0xd6, 0x01, 0x00, 0x00, 0xb4, 0x01, 0x00, 0x00,
0xc7, 0x02, 0x00, 0x00, 0xa6, 0x06, 0x00, 0x00, 0x1a, 0x04, 0x00, 0x00,
0x26, 0x00, 0x00, 0x00, 0x34, 0xfc, 0xff, 0xff, 0xc2, 0x00, 0x00, 0x00,
0xc5, 0x02, 0x00, 0x00, 0x9b, 0xfe, 0xff, 0xff, 0xcf, 0xff, 0xff, 0xff,
0xb0, 0xfd, 0xff, 0xff, 0xa8, 0x02, 0x00, 0x00, 0xad, 0x01, 0x00, 0x00,
0xfc, 0x03, 0x00, 0x00, 0x66, 0xfd, 0xff, 0xff, 0x7b, 0x00, 0x00, 0x00,
0x2c, 0xfe, 0xff, 0xff, 0xe7, 0xfe, 0xff, 0xff, 0x4b, 0xfe, 0xff, 0xff,
0xd4, 0x01, 0x00, 0x00, 0x1f, 0x00, 0x00, 0x00, 0xce, 0x02, 0x00, 0x00,
0x38, 0x02, 0x00, 0x00, 0x01, 0xfd, 0xff, 0xff, 0x0d, 0x03, 0x00, 0x00,
0x9e, 0xfe, 0xff, 0xff, 0x04, 0x00, 0x00, 0x00, 0xa0, 0x00, 0x00, 0x00,
0xdc, 0x55, 0x2a, 0x60, 0x5e, 0x4d, 0x8c, 0x92, 0xd0, 0xef, 0x01, 0x45,
0x25, 0x4d, 0x20, 0xc0, 0x4b, 0x0d, 0x26, 0x6b, 0xc1, 0x37, 0x86, 0x67,
0xd0, 0x11, 0x27, 0x7f, 0xae, 0xfd, 0xcc, 0xdb, 0x02, 0x73, 0x13, 0x33,
0x0f, 0x81, 0x54, 0x09, 0x53, 0xe2, 0xf4, 0xf2, 0xc3, 0xfd, 0x47, 0x1f,
0x91, 0x1e, 0x29, 0x45, 0x81, 0x01, 0x1c, 0xa6, 0xd1, 0xb4, 0xa9, 0x55,
0xdf, 0xf2, 0x17, 0x02, 0xe0, 0x25, 0x56, 0x9c, 0xe9, 0x27, 0xfd, 0x1f,
0xba, 0x6a, 0x87, 0x64, 0xeb, 0x3e, 0x3e, 0xa3, 0x41, 0x53, 0x7f, 0xbb,
0xfd, 0x7d, 0xa1, 0xa0, 0xdc, 0x01, 0x9f, 0xa7, 0xd2, 0xab, 0xee, 0x7f,
0xe0, 0xdb, 0xf0, 0xf4, 0x77, 0x65, 0x01, 0xac, 0xeb, 0x72, 0x57, 0x93,
0x81, 0xd3, 0x67, 0xe2, 0x5b, 0xfc, 0x65, 0xbf, 0x58, 0x47, 0x6f, 0xbc,
0xcd, 0xa9, 0xc7, 0xea, 0xaf, 0x19, 0x8d, 0xf9, 0x6d, 0xd0, 0xb8, 0x81,
0x10, 0x1d, 0x31, 0x73, 0x9c, 0x76, 0xc2, 0xf9, 0x92, 0x7d, 0xe2, 0x3a,
0xbb, 0xb3, 0x31, 0xa7, 0xec, 0xf3, 0xf5, 0xcc, 0x38, 0x05, 0x65, 0x3f,
0x19, 0xea, 0x60, 0x2c, 0x4a, 0xff, 0xff, 0xff, 0x04, 0x00, 0x00, 0x00,
0x14, 0x00, 0x00, 0x00, 0x77, 0xfd, 0xff, 0xff, 0x03, 0xfe, 0xff, 0xff,
0x8b, 0x00, 0x00, 0x00, 0x59, 0x02, 0x00, 0x00, 0x09, 0x01, 0x00, 0x00,
0x38, 0xff, 0xff, 0xff, 0x3c, 0xff, 0xff, 0xff, 0x0f, 0x00, 0x00, 0x00,
0x4d, 0x4c, 0x49, 0x52, 0x20, 0x43, 0x6f, 0x6e, 0x76, 0x65, 0x72, 0x74,
0x65, 0x64, 0x2e, 0x00, 0x01, 0x00, 0x00, 0x00, 0x14, 0x00, 0x00, 0x00,
0x00, 0x00, 0x0e, 0x00, 0x18, 0x00, 0x14, 0x00, 0x10, 0x00, 0x0c, 0x00,
0x08, 0x00, 0x04, 0x00, 0x0e, 0x00, 0x00, 0x00, 0x14, 0x00, 0x00, 0x00,
0x1c, 0x00, 0x00, 0x00, 0x38, 0x01, 0x00, 0x00, 0x3c, 0x01, 0x00, 0x00,
0x40, 0x01, 0x00, 0x00, 0x04, 0x00, 0x00, 0x00, 0x6d, 0x61, 0x69, 0x6e,
0x00, 0x00, 0x00, 0x00, 0x04, 0x00, 0x00, 0x00, 0xe0, 0x00, 0x00, 0x00,
0x98, 0x00, 0x00, 0x00, 0x50, 0x00, 0x00, 0x00, 0x14, 0x00, 0x00, 0x00,
0x00, 0x00, 0x0e, 0x00, 0x1a, 0x00, 0x14, 0x00, 0x10, 0x00, 0x0c, 0x00,
0x0b, 0x00, 0x04, 0x00, 0x0e, 0x00, 0x00, 0x00, 0x1c, 0x00, 0x00, 0x00,
0x00, 0x00, 0x00, 0x09, 0x1c, 0x00, 0x00, 0x00, 0x20, 0x00, 0x00, 0x00,
0x01, 0x00, 0x00, 0x00, 0x00, 0x00, 0x06, 0x00, 0x08, 0x00, 0x04, 0x00,
0x06, 0x00, 0x00, 0x00, 0x00, 0x00, 0x80, 0x3f, 0x01, 0x00, 0x00, 0x00,
0x0a, 0x00, 0x00, 0x00, 0x01, 0x00, 0x00, 0x00, 0x09, 0x00, 0x00, 0x00,
0xca, 0xff, 0xff, 0xff, 0x14, 0x00, 0x00, 0x00, 0x00, 0x00, 0x00, 0x08,
0x10, 0x00, 0x00, 0x00, 0x14, 0x00, 0x00, 0x00, 0x04, 0x00, 0x04, 0x00,
0x04, 0x00, 0x00, 0x00, 0x01, 0x00, 0x00, 0x00, 0x09, 0x00, 0x00, 0x00,
0x03, 0x00, 0x00, 0x00, 0x08, 0x00, 0x00, 0x00, 0x02, 0x00, 0x00, 0x00,
0x01, 0x00, 0x00, 0x00, 0x00, 0x00, 0x0e, 0x00, 0x14, 0x00, 0x00, 0x00,
0x10, 0x00, 0x0c, 0x00, 0x0b, 0x00, 0x04, 0x00, 0x0e, 0x00, 0x00, 0x00,
0x10, 0x00, 0x00, 0x00, 0x00, 0x00, 0x00, 0x08, 0x10, 0x00, 0x00, 0x00,
0x14, 0x00, 0x00, 0x00, 0xba, 0xff, 0xff, 0xff, 0x00, 0x00, 0x00, 0x01,
0x01, 0x00, 0x00, 0x00, 0x08, 0x00, 0x00, 0x00, 0x03, 0x00, 0x00, 0x00,
0x07, 0x00, 0x00, 0x00, 0x04, 0x00, 0x00, 0x00, 0x03, 0x00, 0x00, 0x00,
0x00, 0x00, 0x0e, 0x00, 0x16, 0x00, 0x00, 0x00, 0x10, 0x00, 0x0c, 0x00,
0x0b, 0x00, 0x04, 0x00, 0x0e, 0x00, 0x00, 0x00, 0x18, 0x00, 0x00, 0x00,
0x00, 0x00, 0x00, 0x08, 0x18, 0x00, 0x00, 0x00, 0x1c, 0x00, 0x00, 0x00,
0x00, 0x00, 0x06, 0x00, 0x08, 0x00, 0x07, 0x00, 0x06, 0x00, 0x00, 0x00,
0x00, 0x00, 0x00, 0x01, 0x01, 0x00, 0x00, 0x00, 0x07, 0x00, 0x00, 0x00,
0x03, 0x00, 0x00, 0x00, 0x00, 0x00, 0x00, 0x00, 0x06, 0x00, 0x00, 0x00,
0x05, 0x00, 0x00, 0x00, 0x01, 0x00, 0x00, 0x00, 0x0a, 0x00, 0x00, 0x00,
0x01, 0x00, 0x00, 0x00, 0x00, 0x00, 0x00, 0x00, 0x0b, 0x00, 0x00, 0x00,
0x50, 0x0e, 0x00, 0x00, 0xa8, 0x0d, 0x00, 0x00, 0xfc, 0x0c, 0x00, 0x00,
0x28, 0x0b, 0x00, 0x00, 0x4c, 0x09, 0x00, 0x00, 0xf8, 0x05, 0x00, 0x00,
0x9c, 0x02, 0x00, 0x00, 0xe0, 0x01, 0x00, 0x00, 0x24, 0x01, 0x00, 0x00,
0x80, 0x00, 0x00, 0x00, 0x04, 0x00, 0x00, 0x00, 0xf2, 0xf1, 0xff, 0xff,
0x00, 0x00, 0x00, 0x01, 0x18, 0x00, 0x00, 0x00, 0x20, 0x00, 0x00, 0x00,
0x3c, 0x00, 0x00, 0x00, 0x0b, 0x00, 0x00, 0x00, 0x00, 0x00, 0x00, 0x09,
0x50, 0x00, 0x00, 0x00, 0x02, 0x00, 0x00, 0x00, 0xff, 0xff, 0xff, 0xff,
0x05, 0x00, 0x00, 0x00, 0xdc, 0xf1, 0xff, 0xff, 0x08, 0x00, 0x00, 0x00,
0x10, 0x00, 0x00, 0x00, 0x01, 0x00, 0x00, 0x00, 0x80, 0xff, 0xff, 0xff,
0xff, 0xff, 0xff, 0xff, 0x01, 0x00, 0x00, 0x00, 0x00, 0x00, 0x80, 0x3b,
0x1b, 0x00, 0x00, 0x00, 0x53, 0x74, 0x61, 0x74, 0x65, 0x66, 0x75, 0x6c,
0x50, 0x61, 0x72, 0x74, 0x69, 0x74, 0x69, 0x6f, 0x6e, 0x65, 0x64, 0x43,
0x61, 0x6c, 0x6c, 0x5f, 0x31, 0x3a, 0x30, 0x00, 0x02, 0x00, 0x00, 0x00,
0x01, 0x00, 0x00, 0x00, 0x05, 0x00, 0x00, 0x00, 0x6a, 0xf2, 0xff, 0xff,
0x00, 0x00, 0x00, 0x01, 0x18, 0x00, 0x00, 0x00, 0x20, 0x00, 0x00, 0x00,
0x40, 0x00, 0x00, 0x00, 0x0a, 0x00, 0x00, 0x00, 0x00, 0x00, 0x00, 0x09,
0x78, 0x00, 0x00, 0x00, 0x02, 0x00, 0x00, 0x00, 0xff, 0xff, 0xff, 0xff,
0x05, 0x00, 0x00, 0x00, 0x54, 0xf2, 0xff, 0xff, 0x08, 0x00, 0x00, 0x00,
0x14, 0x00, 0x00, 0x00, 0x01, 0x00, 0x00, 0x00, 0xee, 0xff, 0xff, 0xff,
0xff, 0xff, 0xff, 0xff, 0x00, 0x00, 0x00, 0x00, 0x01, 0x00, 0x00, 0x00,
0x08, 0x38, 0xbf, 0x3d, 0x3e, 0x00, 0x00, 0x00, 0x67, 0x65, 0x61, 0x72,
0x62, 0x6f, 0x78, 0x5f, 0x6d, 0x6c, 0x70, 0x5f, 0x31, 0x2f, 0x64, 0x65,
0x6e, 0x73, 0x65, 0x5f, 0x38, 0x5f, 0x31, 0x2f, 0x4d, 0x61, 0x74, 0x4d,
0x75, 0x6c, 0x3b, 0x67, 0x65, 0x61, 0x72, 0x62, 0x6f, 0x78, 0x5f, 0x6d,
0x6c, 0x70, 0x5f, 0x31, 0x2f, 0x64, 0x65, 0x6e, 0x73, 0x65, 0x5f, 0x38,
0x5f, 0x31, 0x2f, 0x42, 0x69, 0x61, 0x73, 0x41, 0x64, 0x64, 0x00, 0x00,
0x02, 0x00, 0x00, 0x00, 0x01, 0x00, 0x00, 0x00, 0x05, 0x00, 0x00, 0x00,
0x0a, 0xf3, 0xff, 0xff, 0x00, 0x00, 0x00, 0x01, 0x18, 0x00, 0x00, 0x00,
0x20, 0x00, 0x00, 0x00, 0x3c, 0x00, 0x00, 0x00, 0x09, 0x00, 0x00, 0x00,
0x00, 0x00, 0x00, 0x09, 0x90, 0x00, 0x00, 0x00, 0x02, 0x00, 0x00, 0x00,
0xff, 0xff, 0xff, 0xff, 0x20, 0x00, 0x00, 0x00, 0xf4, 0xf2, 0xff, 0xff,
0x08, 0x00, 0x00, 0x00, 0x10, 0x00, 0x00, 0x00, 0x01, 0x00, 0x00, 0x00,
0x80, 0xff, 0xff, 0xff, 0xff, 0xff, 0xff, 0xff, 0x01, 0x00, 0x00, 0x00,
0xec, 0x83, 0x10, 0x3d, 0x5b, 0x00, 0x00, 0x00, 0x67, 0x65, 0x61, 0x72,
0x62, 0x6f, 0x78, 0x5f, 0x6d, 0x6c, 0x70, 0x5f, 0x31, 0x2f, 0x64, 0x65,
0x6e, 0x73, 0x65, 0x5f, 0x37, 0x5f, 0x31, 0x2f, 0x4d, 0x61, 0x74, 0x4d,
0x75, 0x6c, 0x3b, 0x67, 0x65, 0x61, 0x72, 0x62, 0x6f, 0x78, 0x5f, 0x6d,
0x6c, 0x70, 0x5f, 0x31, 0x2f, 0x64, 0x65, 0x6e, 0x73, 0x65, 0x5f, 0x37,
0x5f, 0x31, 0x2f, 0x52, 0x65, 0x6c, 0x75, 0x3b, 0x67, 0x65, 0x61, 0x72,
0x62, 0x6f, 0x78, 0x5f, 0x6d, 0x6c, 0x70, 0x5f, 0x31, 0x2f, 0x64, 0x65,
0x6e, 0x73, 0x65, 0x5f, 0x37, 0x5f, 0x31, 0x2f, 0x42, 0x69, 0x61, 0x73,
0x41, 0x64, 0x64, 0x00, 0x02, 0x00, 0x00, 0x00, 0x01, 0x00, 0x00, 0x00,
0x20, 0x00, 0x00, 0x00, 0xc2, 0xf3, 0xff, 0xff, 0x00, 0x00, 0x00, 0x01,
0x18, 0x00, 0x00, 0x00, 0x20, 0x00, 0x00, 0x00, 0x3c, 0x00, 0x00, 0x00,
0x08, 0x00, 0x00, 0x00, 0x00, 0x00, 0x00, 0x09, 0x90, 0x00, 0x00, 0x00,
0x02, 0x00, 0x00, 0x00, 0xff, 0xff, 0xff, 0xff, 0x40, 0x00, 0x00, 0x00,
0xac, 0xf3, 0xff, 0xff, 0x08, 0x00, 0x00, 0x00, 0x10, 0x00, 0x00, 0x00,
0x01, 0x00, 0x00, 0x00, 0x80, 0xff, 0xff, 0xff, 0xff, 0xff, 0xff, 0xff,
0x01, 0x00, 0x00, 0x00, 0x2f, 0x84, 0xc3, 0x3c, 0x5b, 0x00, 0x00, 0x00,
0x67, 0x65, 0x61, 0x72, 0x62, 0x6f, 0x78, 0x5f, 0x6d, 0x6c, 0x70, 0x5f,
0x31, 0x2f, 0x64, 0x65, 0x6e, 0x73, 0x65, 0x5f, 0x36, 0x5f, 0x31, 0x2f,
0x4d, 0x61, 0x74, 0x4d, 0x75, 0x6c, 0x3b, 0x67, 0x65, 0x61, 0x72, 0x62,
0x6f, 0x78, 0x5f, 0x6d, 0x6c, 0x70, 0x5f, 0x31, 0x2f, 0x64, 0x65, 0x6e,
0x73, 0x65, 0x5f, 0x36, 0x5f, 0x31, 0x2f, 0x52, 0x65, 0x6c, 0x75, 0x3b,
0x67, 0x65, 0x61, 0x72, 0x62, 0x6f, 0x78, 0x5f, 0x6d, 0x6c, 0x70, 0x5f,
0x31, 0x2f, 0x64, 0x65, 0x6e, 0x73, 0x65, 0x5f, 0x36, 0x5f, 0x31, 0x2f,
0x42, 0x69, 0x61, 0x73, 0x41, 0x64, 0x64, 0x00, 0x02, 0x00, 0x00, 0x00,
0x01, 0x00, 0x00, 0x00, 0x40, 0x00, 0x00, 0x00, 0x1e, 0xf5, 0xff, 0xff,
0x00, 0x00, 0x00, 0x01, 0x14, 0x00, 0x00, 0x00, 0x28, 0x03, 0x00, 0x00,
0x07, 0x00, 0x00, 0x00, 0x00, 0x00, 0x00, 0x09, 0x34, 0x03, 0x00, 0x00,
0x54, 0xf4, 0xff, 0xff, 0x08, 0x00, 0x00, 0x00, 0x0c, 0x02, 0x00, 0x00,
0x40, 0x00, 0x00, 0x00, 0x00, 0x00, 0x00, 0x00, 0x00, 0x00, 0x00, 0x00,
0x00, 0x00, 0x00, 0x00, 0x00, 0x00, 0x00, 0x00, 0x00, 0x00, 0x00, 0x00,
0x00, 0x00, 0x00, 0x00, 0x00, 0x00, 0x00, 0x00, 0x00, 0x00, 0x00, 0x00,
0x00, 0x00, 0x00, 0x00, 0x00, 0x00, 0x00, 0x00, 0x00, 0x00, 0x00, 0x00,
0x00, 0x00, 0x00, 0x00, 0x00, 0x00, 0x00, 0x00, 0x00, 0x00, 0x00, 0x00,
0x00, 0x00, 0x00, 0x00, 0x00, 0x00, 0x00, 0x00, 0x00, 0x00, 0x00, 0x00,
0x00, 0x00, 0x00, 0x00, 0x00, 0x00, 0x00, 0x00, 0x00, 0x00, 0x00, 0x00,
0x00, 0x00, 0x00, 0x00, 0x00, 0x00, 0x00, 0x00, 0x00, 0x00, 0x00, 0x00,
0x00, 0x00, 0x00, 0x00, 0x00, 0x00, 0x00, 0x00, 0x00, 0x00, 0x00, 0x00,
0x00, 0x00, 0x00, 0x00, 0x00, 0x00, 0x00, 0x00, 0x00, 0x00, 0x00, 0x00,
0x00, 0x00, 0x00, 0x00, 0x00, 0x00, 0x00, 0x00, 0x00, 0x00, 0x00, 0x00,
0x00, 0x00, 0x00, 0x00, 0x00, 0x00, 0x00, 0x00, 0x00, 0x00, 0x00, 0x00,
0x00, 0x00, 0x00, 0x00, 0x00, 0x00, 0x00, 0x00, 0x00, 0x00, 0x00, 0x00,
0x00, 0x00, 0x00, 0x00, 0x00, 0x00, 0x00, 0x00, 0x00, 0x00, 0x00, 0x00,
0x00, 0x00, 0x00, 0x00, 0x00, 0x00, 0x00, 0x00, 0x00, 0x00, 0x00, 0x00,
0x00, 0x00, 0x00, 0x00, 0x00, 0x00, 0x00, 0x00, 0x00, 0x00, 0x00, 0x00,
0x00, 0x00, 0x00, 0x00, 0x00, 0x00, 0x00, 0x00, 0x00, 0x00, 0x00, 0x00,
0x00, 0x00, 0x00, 0x00, 0x00, 0x00, 0x00, 0x00, 0x00, 0x00, 0x00, 0x00,
0x00, 0x00, 0x00, 0x00, 0x00, 0x00, 0x00, 0x00, 0x00, 0x00, 0x00, 0x00,
0x00, 0x00, 0x00, 0x00, 0x00, 0x00, 0x00, 0x00, 0x00, 0x00, 0x00, 0x00,
0x00, 0x00, 0x00, 0x00, 0x00, 0x00, 0x00, 0x00, 0x00, 0x00, 0x00, 0x00,
0x00, 0x00, 0x00, 0x00, 0x00, 0x00, 0x00, 0x00, 0x00, 0x00, 0x00, 0x00,
0x00, 0x00, 0x00, 0x00, 0x00, 0x00, 0x00, 0x00, 0x00, 0x00, 0x00, 0x00,
0x00, 0x00, 0x00, 0x00, 0x00, 0x00, 0x00, 0x00, 0x00, 0x00, 0x00, 0x00,
0x00, 0x00, 0x00, 0x00, 0x00, 0x00, 0x00, 0x00, 0x00, 0x00, 0x00, 0x00,
0x00, 0x00, 0x00, 0x00, 0x00, 0x00, 0x00, 0x00, 0x00, 0x00, 0x00, 0x00,
0x00, 0x00, 0x00, 0x00, 0x00, 0x00, 0x00, 0x00, 0x00, 0x00, 0x00, 0x00,
0x00, 0x00, 0x00, 0x00, 0x00, 0x00, 0x00, 0x00, 0x00, 0x00, 0x00, 0x00,
0x00, 0x00, 0x00, 0x00, 0x00, 0x00, 0x00, 0x00, 0x00, 0x00, 0x00, 0x00,
0x00, 0x00, 0x00, 0x00, 0x00, 0x00, 0x00, 0x00, 0x00, 0x00, 0x00, 0x00,
0x00, 0x00, 0x00, 0x00, 0x00, 0x00, 0x00, 0x00, 0x00, 0x00, 0x00, 0x00,
0x00, 0x00, 0x00, 0x00, 0x00, 0x00, 0x00, 0x00, 0x00, 0x00, 0x00, 0x00,
0x00, 0x00, 0x00, 0x00, 0x00, 0x00, 0x00, 0x00, 0x00, 0x00, 0x00, 0x00,
0x00, 0x00, 0x00, 0x00, 0x00, 0x00, 0x00, 0x00, 0x00, 0x00, 0x00, 0x00,
0x00, 0x00, 0x00, 0x00, 0x00, 0x00, 0x00, 0x00, 0x00, 0x00, 0x00, 0x00,
0x00, 0x00, 0x00, 0x00, 0x00, 0x00, 0x00, 0x00, 0x00, 0x00, 0x00, 0x00,
0x00, 0x00, 0x00, 0x00, 0x00, 0x00, 0x00, 0x00, 0x00, 0x00, 0x00, 0x00,
0x00, 0x00, 0x00, 0x00, 0x00, 0x00, 0x00, 0x00, 0x00, 0x00, 0x00, 0x00,
0x00, 0x00, 0x00, 0x00, 0x00, 0x00, 0x00, 0x00, 0x00, 0x00, 0x00, 0x00,
0x00, 0x00, 0x00, 0x00, 0x00, 0x00, 0x00, 0x00, 0x00, 0x00, 0x00, 0x00,
0x00, 0x00, 0x00, 0x00, 0x00, 0x00, 0x00, 0x00, 0x00, 0x00, 0x00, 0x00,
0x00, 0x00, 0x00, 0x00, 0x00, 0x00, 0x00, 0x00, 0x00, 0x00, 0x00, 0x00,
0x00, 0x00, 0x00, 0x00, 0x00, 0x00, 0x00, 0x00, 0x00, 0x00, 0x00, 0x00,
0x00, 0x00, 0x00, 0x00, 0x40, 0x00, 0x00, 0x00, 0x6c, 0x85, 0x00, 0x3b,
0x67, 0x5a, 0x44, 0x3b, 0x23, 0x4a, 0x50, 0x3b, 0xba, 0x71, 0x2f, 0x3b,
0x53, 0xa7, 0x23, 0x3b, 0x4c, 0x99, 0x47, 0x3b, 0x86, 0x05, 0x13, 0x3b,
0x1d, 0x12, 0x32, 0x3b, 0xab, 0x5c, 0xfa, 0x3a, 0x13, 0xbf, 0x14, 0x3b,
0x44, 0xc4, 0x12, 0x3b, 0xfd, 0x38, 0x2e, 0x3b, 0x4f, 0x0b, 0x1e, 0x3b,
0x6d, 0x9e, 0x0d, 0x3b, 0x2e, 0xdf, 0x02, 0x3b, 0xc6, 0xea, 0x31, 0x3b,
0x64, 0x2f, 0x0a, 0x3b, 0xc1, 0x3b, 0x32, 0x3b, 0x47, 0xda, 0xe0, 0x3a,
0x98, 0x88, 0x16, 0x3b, 0xe0, 0xab, 0x0c, 0x3b, 0x63, 0xc8, 0x0d, 0x3b,
0xaf, 0xa4, 0x31, 0x3b, 0x67, 0xa5, 0x2d, 0x3b, 0x55, 0x0f, 0x1a, 0x3b,
0x87, 0x5a, 0xf3, 0x3a, 0x44, 0x86, 0x38, 0x3b, 0xd5, 0xc6, 0x18, 0x3b,
0xc9, 0x4d, 0x36, 0x3b, 0x1f, 0xaf, 0x11, 0x3b, 0xda, 0x87, 0x35, 0x3b,
0xc6, 0x42, 0x01, 0x3b, 0x77, 0xc5, 0xf2, 0x3a, 0x9b, 0xe9, 0x3e, 0x3b,
0x84, 0x53, 0x2a, 0x3b, 0xa8, 0x36, 0x03, 0x3b, 0x60, 0x37, 0x3f, 0x3b,
0x85, 0xcd, 0x12, 0x3b, 0x2a, 0xae, 0x16, 0x3b, 0xed, 0x68, 0x01, 0x3b,
0x9a, 0x16, 0x22, 0x3b, 0x4e, 0xf2, 0xf5, 0x3a, 0x04, 0xe9, 0x26, 0x3b,
0x86, 0xa3, 0x0f, 0x3b, 0xb0, 0x2a, 0x10, 0x3b, 0x8c, 0xc1, 0x24, 0x3b,
0x97, 0x40, 0x11, 0x3b, 0xe9, 0xe9, 0x11, 0x3b, 0xd7, 0x75, 0xed, 0x3a,
0x18, 0x40, 0x01, 0x3b, 0x34, 0x1d, 0x1c, 0x3b, 0xb8, 0x50, 0x0c, 0x3b,
0xcd, 0xc4, 0x0e, 0x3b, 0xd8, 0x80, 0xed, 0x3a, 0x3a, 0x2b, 0xe3, 0x3a,
0x12, 0xb8, 0x07, 0x3b, 0x24, 0xed, 0xef, 0x3a, 0x90, 0x27, 0x25, 0x3b,
0x49, 0x82, 0x17, 0x3b, 0xb4, 0x0d, 0x06, 0x3b, 0x23, 0x3d, 0x09, 0x3b,
0xd4, 0xd3, 0x06, 0x3b, 0x2a, 0xf0, 0x12, 0x3b, 0xf1, 0x66, 0x22, 0x3b,
0x12, 0x00, 0x00, 0x00, 0x74, 0x66, 0x6c, 0x2e, 0x70, 0x73, 0x65, 0x75,
0x64, 0x6f, 0x5f, 0x71, 0x63, 0x6f, 0x6e, 0x73, 0x74, 0x35, 0x00, 0x00,
0x02, 0x00, 0x00, 0x00, 0x40, 0x00, 0x00, 0x00, 0x39, 0x00, 0x00, 0x00,
0x76, 0xf8, 0xff, 0xff, 0x00, 0x00, 0x00, 0x01, 0x14, 0x00, 0x00, 0x00,
0x24, 0x03, 0x00, 0x00, 0x06, 0x00, 0x00, 0x00, 0x00, 0x00, 0x00, 0x02,
0x30, 0x03, 0x00, 0x00, 0xac, 0xf7, 0xff, 0xff, 0x08, 0x00, 0x00, 0x00,
0x08, 0x02, 0x00, 0x00, 0x40, 0x00, 0x00, 0x00, 0x00, 0x00, 0x00, 0x00,
0x00, 0x00, 0x00, 0x00, 0x00, 0x00, 0x00, 0x00, 0x00, 0x00, 0x00, 0x00,
0x00, 0x00, 0x00, 0x00, 0x00, 0x00, 0x00, 0x00, 0x00, 0x00, 0x00, 0x00,
0x00, 0x00, 0x00, 0x00, 0x00, 0x00, 0x00, 0x00, 0x00, 0x00, 0x00, 0x00,
0x00, 0x00, 0x00, 0x00, 0x00, 0x00, 0x00, 0x00, 0x00, 0x00, 0x00, 0x00,
0x00, 0x00, 0x00, 0x00, 0x00, 0x00, 0x00, 0x00, 0x00, 0x00, 0x00, 0x00,
0x00, 0x00, 0x00, 0x00, 0x00, 0x00, 0x00, 0x00, 0x00, 0x00, 0x00, 0x00,
0x00, 0x00, 0x00, 0x00, 0x00, 0x00, 0x00, 0x00, 0x00, 0x00, 0x00, 0x00,
0x00, 0x00, 0x00, 0x00, 0x00, 0x00, 0x00, 0x00, 0x00, 0x00, 0x00, 0x00,
0x00, 0x00, 0x00, 0x00, 0x00, 0x00, 0x00, 0x00, 0x00, 0x00, 0x00, 0x00,
0x00, 0x00, 0x00, 0x00, 0x00, 0x00, 0x00, 0x00, 0x00, 0x00, 0x00, 0x00,
0x00, 0x00, 0x00, 0x00, 0x00, 0x00, 0x00, 0x00, 0x00, 0x00, 0x00, 0x00,
0x00, 0x00, 0x00, 0x00, 0x00, 0x00, 0x00, 0x00, 0x00, 0x00, 0x00, 0x00,
0x00, 0x00, 0x00, 0x00, 0x00, 0x00, 0x00, 0x00, 0x00, 0x00, 0x00, 0x00,
0x00, 0x00, 0x00, 0x00, 0x00, 0x00, 0x00, 0x00, 0x00, 0x00, 0x00, 0x00,
0x00, 0x00, 0x00, 0x00, 0x00, 0x00, 0x00, 0x00, 0x00, 0x00, 0x00, 0x00,
0x00, 0x00, 0x00, 0x00, 0x00, 0x00, 0x00, 0x00, 0x00, 0x00, 0x00, 0x00,
0x00, 0x00, 0x00, 0x00, 0x00, 0x00, 0x00, 0x00, 0x00, 0x00, 0x00, 0x00,
0x00, 0x00, 0x00, 0x00, 0x00, 0x00, 0x00, 0x00, 0x00, 0x00, 0x00, 0x00,
0x00, 0x00, 0x00, 0x00, 0x00, 0x00, 0x00, 0x00, 0x00, 0x00, 0x00, 0x00,
0x00, 0x00, 0x00, 0x00, 0x00, 0x00, 0x00, 0x00, 0x00, 0x00, 0x00, 0x00,
0x00, 0x00, 0x00, 0x00, 0x00, 0x00, 0x00, 0x00, 0x00, 0x00, 0x00, 0x00,
0x00, 0x00, 0x00, 0x00, 0x00, 0x00, 0x00, 0x00, 0x00, 0x00, 0x00, 0x00,
0x00, 0x00, 0x00, 0x00, 0x00, 0x00, 0x00, 0x00, 0x00, 0x00, 0x00, 0x00,
0x00, 0x00, 0x00, 0x00, 0x00, 0x00, 0x00, 0x00, 0x00, 0x00, 0x00, 0x00,
0x00, 0x00, 0x00, 0x00, 0x00, 0x00, 0x00, 0x00, 0x00, 0x00, 0x00, 0x00,
0x00, 0x00, 0x00, 0x00, 0x00, 0x00, 0x00, 0x00, 0x00, 0x00, 0x00, 0x00,
0x00, 0x00, 0x00, 0x00, 0x00, 0x00, 0x00, 0x00, 0x00, 0x00, 0x00, 0x00,
0x00, 0x00, 0x00, 0x00, 0x00, 0x00, 0x00, 0x00, 0x00, 0x00, 0x00, 0x00,
0x00, 0x00, 0x00, 0x00, 0x00, 0x00, 0x00, 0x00, 0x00, 0x00, 0x00, 0x00,
0x00, 0x00, 0x00, 0x00, 0x00, 0x00, 0x00, 0x00, 0x00, 0x00, 0x00, 0x00,
0x00, 0x00, 0x00, 0x00, 0x00, 0x00, 0x00, 0x00, 0x00, 0x00, 0x00, 0x00,
0x00, 0x00, 0x00, 0x00, 0x00, 0x00, 0x00, 0x00, 0x00, 0x00, 0x00, 0x00,
0x00, 0x00, 0x00, 0x00, 0x00, 0x00, 0x00, 0x00, 0x00, 0x00, 0x00, 0x00,
0x00, 0x00, 0x00, 0x00, 0x00, 0x00, 0x00, 0x00, 0x00, 0x00, 0x00, 0x00,
0x00, 0x00, 0x00, 0x00, 0x00, 0x00, 0x00, 0x00, 0x00, 0x00, 0x00, 0x00,
0x00, 0x00, 0x00, 0x00, 0x00, 0x00, 0x00, 0x00, 0x00, 0x00, 0x00, 0x00,
0x00, 0x00, 0x00, 0x00, 0x00, 0x00, 0x00, 0x00, 0x00, 0x00, 0x00, 0x00,
0x00, 0x00, 0x00, 0x00, 0x00, 0x00, 0x00, 0x00, 0x00, 0x00, 0x00, 0x00,
0x00, 0x00, 0x00, 0x00, 0x00, 0x00, 0x00, 0x00, 0x00, 0x00, 0x00, 0x00,
0x00, 0x00, 0x00, 0x00, 0x00, 0x00, 0x00, 0x00, 0x00, 0x00, 0x00, 0x00,
0x00, 0x00, 0x00, 0x00, 0x00, 0x00, 0x00, 0x00, 0x00, 0x00, 0x00, 0x00,
0x00, 0x00, 0x00, 0x00, 0x00, 0x00, 0x00, 0x00, 0x00, 0x00, 0x00, 0x00,
0x00, 0x00, 0x00, 0x00, 0x40, 0x00, 0x00, 0x00, 0x6f, 0x15, 0xd4, 0x38,
0x6e, 0x02, 0x22, 0x39, 0xb2, 0xdb, 0x2b, 0x39, 0xfb, 0xc1, 0x10, 0x39,
0x84, 0x07, 0x07, 0x39, 0xff, 0xaf, 0x24, 0x39, 0xe0, 0x9c, 0xf2, 0x38,
0xc3, 0xec, 0x12, 0x39, 0x61, 0x92, 0xce, 0x38, 0x84, 0x75, 0xf5, 0x38,
0x30, 0x31, 0xf2, 0x38, 0xf1, 0xbf, 0x0f, 0x39, 0xac, 0x66, 0x02, 0x39,
0x82, 0xb2, 0xe9, 0x38, 0x72, 0xf6, 0xd7, 0x38, 0x4d, 0xcc, 0x12, 0x39,
0xf0, 0x07, 0xe4, 0x38, 0x1e, 0x0f, 0x13, 0x39, 0x34, 0x86, 0xb9, 0x38,
0x82, 0x68, 0xf8, 0x38, 0x41, 0x22, 0xe8, 0x38, 0xc1, 0xf7, 0xe9, 0x38,
0x78, 0x92, 0x12, 0x39, 0x2b, 0x46, 0x0f, 0x39, 0x32, 0x3a, 0xfe, 0x38,
0x0c, 0xca, 0xc8, 0x38, 0xf0, 0x3f, 0x18, 0x39, 0x1c, 0x1c, 0xfc, 0x38,
0xe4, 0x6a, 0x16, 0x39, 0xd9, 0x67, 0xf0, 0x38, 0x93, 0xc7, 0x15, 0x39,
0xe6, 0x4d, 0xd5, 0x38, 0x0f, 0x4f, 0xc8, 0x38, 0x3f, 0x85, 0x1d, 0x39,
0xef, 0x88, 0x0c, 0x39, 0xcc, 0x86, 0xd8, 0x38, 0x69, 0xc5, 0x1d, 0x39,
0x76, 0x40, 0xf2, 0x38, 0x82, 0xa6, 0xf8, 0x38, 0xdb, 0x8c, 0xd5, 0x38,
0xe2, 0xbc, 0x05, 0x39, 0xba, 0xed, 0xca, 0x38, 0x64, 0xb7, 0x09, 0x39,
0xd1, 0x07, 0xed, 0x38, 0xdd, 0xe6, 0xed, 0x38, 0x61, 0xf0, 0x07, 0x39,
0x74, 0xb1, 0xef, 0x38, 0xdd, 0xc8, 0xf0, 0x38, 0x3e, 0xed, 0xc3, 0x38,
0x7a, 0x49, 0xd5, 0x38, 0xfd, 0xce, 0x00, 0x39, 0xd5, 0x8b, 0xe7, 0x38,
0x48, 0x98, 0xeb, 0x38, 0x52, 0xf6, 0xc3, 0x38, 0x71, 0x6f, 0xbb, 0x38,
0x25, 0xf6, 0xdf, 0x38, 0x1f, 0xf6, 0xc5, 0x38, 0x8d, 0x44, 0x08, 0x39,
0x8c, 0x04, 0xfa, 0x38, 0x8f, 0x36, 0xdd, 0x38, 0x2d, 0x78, 0xe2, 0x38,
0x80, 0x7d, 0xde, 0x38, 0xa1, 0x79, 0xf2, 0x38, 0x2c, 0xff, 0x05, 0x39,
0x12, 0x00, 0x00, 0x00, 0x74, 0x66, 0x6c, 0x2e, 0x70, 0x73, 0x65, 0x75,
0x64, 0x6f, 0x5f, 0x71, 0x63, 0x6f, 0x6e, 0x73, 0x74, 0x34, 0x00, 0x00,
0x01, 0x00, 0x00, 0x00, 0x40, 0x00, 0x00, 0x00, 0xc6, 0xfb, 0xff, 0xff,
0x00, 0x00, 0x00, 0x01, 0x14, 0x00, 0x00, 0x00, 0xa8, 0x01, 0x00, 0x00,
0x05, 0x00, 0x00, 0x00, 0x00, 0x00, 0x00, 0x09, 0xb4, 0x01, 0x00, 0x00,
0xfc, 0xfa, 0xff, 0xff, 0x08, 0x00, 0x00, 0x00, 0x0c, 0x01, 0x00, 0x00,
0x20, 0x00, 0x00, 0x00, 0x00, 0x00, 0x00, 0x00, 0x00, 0x00, 0x00, 0x00,
0x00, 0x00, 0x00, 0x00, 0x00, 0x00, 0x00, 0x00, 0x00, 0x00, 0x00, 0x00,
0x00, 0x00, 0x00, 0x00, 0x00, 0x00, 0x00, 0x00, 0x00, 0x00, 0x00, 0x00,
0x00, 0x00, 0x00, 0x00, 0x00, 0x00, 0x00, 0x00, 0x00, 0x00, 0x00, 0x00,
0x00, 0x00, 0x00, 0x00, 0x00, 0x00, 0x00, 0x00, 0x00, 0x00, 0x00, 0x00,
0x00, 0x00, 0x00, 0x00, 0x00, 0x00, 0x00, 0x00, 0x00, 0x00, 0x00, 0x00,
0x00, 0x00, 0x00, 0x00, 0x00, 0x00, 0x00, 0x00, 0x00, 0x00, 0x00, 0x00,
0x00, 0x00, 0x00, 0x00, 0x00, 0x00, 0x00, 0x00, 0x00, 0x00, 0x00, 0x00,
0x00, 0x00, 0x00, 0x00, 0x00, 0x00, 0x00, 0x00, 0x00, 0x00, 0x00, 0x00,
0x00, 0x00, 0x00, 0x00, 0x00, 0x00, 0x00, 0x00, 0x00, 0x00, 0x00, 0x00,
0x00, 0x00, 0x00, 0x00, 0x00, 0x00, 0x00, 0x00, 0x00, 0x00, 0x00, 0x00,
0x00, 0x00, 0x00, 0x00, 0x00, 0x00, 0x00, 0x00, 0x00, 0x00, 0x00, 0x00,
0x00, 0x00, 0x00, 0x00, 0x00, 0x00, 0x00, 0x00, 0x00, 0x00, 0x00, 0x00,
0x00, 0x00, 0x00, 0x00, 0x00, 0x00, 0x00, 0x00, 0x00, 0x00, 0x00, 0x00,
0x00, 0x00, 0x00, 0x00, 0x00, 0x00, 0x00, 0x00, 0x00, 0x00, 0x00, 0x00,
0x00, 0x00, 0x00, 0x00, 0x00, 0x00, 0x00, 0x00, 0x00, 0x00, 0x00, 0x00,
0x00, 0x00, 0x00, 0x00, 0x00, 0x00, 0x00, 0x00, 0x00, 0x00, 0x00, 0x00,
0x00, 0x00, 0x00, 0x00, 0x00, 0x00, 0x00, 0x00, 0x00, 0x00, 0x00, 0x00,
0x00, 0x00, 0x00, 0x00, 0x00, 0x00, 0x00, 0x00, 0x00, 0x00, 0x00, 0x00,
0x00, 0x00, 0x00, 0x00, 0x00, 0x00, 0x00, 0x00, 0x00, 0x00, 0x00, 0x00,
0x00, 0x00, 0x00, 0x00, 0x00, 0x00, 0x00, 0x00, 0x00, 0x00, 0x00, 0x00,
0x00, 0x00, 0x00, 0x00, 0x00, 0x00, 0x00, 0x00, 0x00, 0x00, 0x00, 0x00,
0x20, 0x00, 0x00, 0x00, 0xe5, 0x0a, 0x1f, 0x3b, 0x76, 0xac, 0x20, 0x3b,
0xc6, 0xab, 0x10, 0x3b, 0x33, 0xe2, 0x37, 0x3b, 0x3e, 0x00, 0x3b, 0x3b,
0xf5, 0xe7, 0x38, 0x3b, 0xc6, 0xc7, 0x1d, 0x3b, 0xea, 0x02, 0x23, 0x3b,
0x95, 0x87, 0x28, 0x3b, 0x00, 0xb6, 0x40, 0x3b, 0xad, 0x48, 0x1f, 0x3b,
0x66, 0x88, 0x13, 0x3b, 0xb4, 0x49, 0x0f, 0x3b, 0x16, 0x9c, 0x18, 0x3b,
0xf4, 0x09, 0x23, 0x3b, 0xe8, 0x98, 0x0d, 0x3b, 0x29, 0x17, 0x0d, 0x3b,
0xd2, 0x9f, 0x09, 0x3b, 0x06, 0xb7, 0x08, 0x3b, 0x04, 0xd4, 0x33, 0x3b,
0xf6, 0xc9, 0x13, 0x3b, 0xc4, 0x71, 0x1d, 0x3b, 0x6d, 0x9f, 0x22, 0x3b,
0xe0, 0xaf, 0x17, 0x3b, 0x51, 0x67, 0x23, 0x3b, 0x0f, 0x1b, 0x10, 0x3b,
0x9a, 0x0d, 0x1b, 0x3b, 0x20, 0x78, 0x29, 0x3b, 0x32, 0x87, 0x1f, 0x3b,
0xc9, 0x71, 0x18, 0x3b, 0x68, 0x19, 0x09, 0x3b, 0x60, 0xc3, 0x4a, 0x3b,
0x12, 0x00, 0x00, 0x00, 0x74, 0x66, 0x6c, 0x2e, 0x70, 0x73, 0x65, 0x75,
0x64, 0x6f, 0x5f, 0x71, 0x63, 0x6f, 0x6e, 0x73, 0x74, 0x33, 0x00, 0x00,
0x02, 0x00, 0x00, 0x00, 0x20, 0x00, 0x00, 0x00, 0x40, 0x00, 0x00, 0x00,
0x9e, 0xfd, 0xff, 0xff, 0x00, 0x00, 0x00, 0x01, 0x14, 0x00, 0x00, 0x00,
0xa4, 0x01, 0x00, 0x00, 0x04, 0x00, 0x00, 0x00, 0x00, 0x00, 0x00, 0x02,
0xb0, 0x01, 0x00, 0x00, 0xd4, 0xfc, 0xff, 0xff, 0x08, 0x00, 0x00, 0x00,
0x08, 0x01, 0x00, 0x00, 0x20, 0x00, 0x00, 0x00, 0x00, 0x00, 0x00, 0x00,
0x00, 0x00, 0x00, 0x00, 0x00, 0x00, 0x00, 0x00, 0x00, 0x00, 0x00, 0x00,
0x00, 0x00, 0x00, 0x00, 0x00, 0x00, 0x00, 0x00, 0x00, 0x00, 0x00, 0x00,
0x00, 0x00, 0x00, 0x00, 0x00, 0x00, 0x00, 0x00, 0x00, 0x00, 0x00, 0x00,
0x00, 0x00, 0x00, 0x00, 0x00, 0x00, 0x00, 0x00, 0x00, 0x00, 0x00, 0x00,
0x00, 0x00, 0x00, 0x00, 0x00, 0x00, 0x00, 0x00, 0x00, 0x00, 0x00, 0x00,
0x00, 0x00, 0x00, 0x00, 0x00, 0x00, 0x00, 0x00, 0x00, 0x00, 0x00, 0x00,
0x00, 0x00, 0x00, 0x00, 0x00, 0x00, 0x00, 0x00, 0x00, 0x00, 0x00, 0x00,
0x00, 0x00, 0x00, 0x00, 0x00, 0x00, 0x00, 0x00, 0x00, 0x00, 0x00, 0x00,
0x00, 0x00, 0x00, 0x00, 0x00, 0x00, 0x00, 0x00, 0x00, 0x00, 0x00, 0x00,
0x00, 0x00, 0x00, 0x00, 0x00, 0x00, 0x00, 0x00, 0x00, 0x00, 0x00, 0x00,
0x00, 0x00, 0x00, 0x00, 0x00, 0x00, 0x00, 0x00, 0x00, 0x00, 0x00, 0x00,
0x00, 0x00, 0x00, 0x00, 0x00, 0x00, 0x00, 0x00, 0x00, 0x00, 0x00, 0x00,
0x00, 0x00, 0x00, 0x00, 0x00, 0x00, 0x00, 0x00, 0x00, 0x00, 0x00, 0x00,
0x00, 0x00, 0x00, 0x00, 0x00, 0x00, 0x00, 0x00, 0x00, 0x00, 0x00, 0x00,
0x00, 0x00, 0x00, 0x00, 0x00, 0x00, 0x00, 0x00, 0x00, 0x00, 0x00, 0x00,
0x00, 0x00, 0x00, 0x00, 0x00, 0x00, 0x00, 0x00, 0x00, 0x00, 0x00, 0x00,
0x00, 0x00, 0x00, 0x00, 0x00, 0x00, 0x00, 0x00, 0x00, 0x00, 0x00, 0x00,
0x00, 0x00, 0x00, 0x00, 0x00, 0x00, 0x00, 0x00, 0x00, 0x00, 0x00, 0x00,
0x00, 0x00, 0x00, 0x00, 0x00, 0x00, 0x00, 0x00, 0x00, 0x00, 0x00, 0x00,
0x00, 0x00, 0x00, 0x00, 0x00, 0x00, 0x00, 0x00, 0x00, 0x00, 0x00, 0x00,
0x00, 0x00, 0x00, 0x00, 0x00, 0x00, 0x00, 0x00, 0x00, 0x00, 0x00, 0x00,
0x20, 0x00, 0x00, 0x00, 0xd7, 0xee, 0x72, 0x38, 0xa9, 0x6c, 0x75, 0x38,
0x16, 0xfb, 0x5c, 0x38, 0x3f, 0x70, 0x8c, 0x38, 0xbe, 0xd1, 0x8e, 0x38,
0x29, 0x38, 0x8d, 0x38, 0x48, 0x01, 0x71, 0x38, 0xc7, 0xfe, 0x78, 0x38,
0x4b, 0xb6, 0x80, 0x38, 0x23, 0x2e, 0x93, 0x38, 0x35, 0x4d, 0x73, 0x38,
0x26, 0x5a, 0x61, 0x38, 0x41, 0xde, 0x5a, 0x38, 0x63, 0x1b, 0x69, 0x38,
0x88, 0x09, 0x79, 0x38, 0x2b, 0x49, 0x58, 0x38, 0xfc, 0x82, 0x57, 0x38,
0x99, 0x37, 0x52, 0x38, 0x02, 0xd4, 0x50, 0x38, 0x59, 0x57, 0x89, 0x38,
0x4b, 0xbe, 0x61, 0x38, 0xe8, 0x7d, 0x70, 0x38, 0xd0, 0x66, 0x78, 0x38,
0x94, 0xb2, 0x67, 0x38, 0x24, 0x98, 0x79, 0x38, 0x0a, 0x1e, 0x5c, 0x38,
0xd8, 0xd6, 0x6c, 0x38, 0x01, 0x6e, 0x81, 0x38, 0xb4, 0xac, 0x73, 0x38,
0xc6, 0xda, 0x68, 0x38, 0x49, 0x6a, 0x51, 0x38, 0x84, 0xdb, 0x9a, 0x38,
0x12, 0x00, 0x00, 0x00, 0x74, 0x66, 0x6c, 0x2e, 0x70, 0x73, 0x65, 0x75,
0x64, 0x6f, 0x5f, 0x71, 0x63, 0x6f, 0x6e, 0x73, 0x74, 0x32, 0x00, 0x00,
0x01, 0x00, 0x00, 0x00, 0x20, 0x00, 0x00, 0x00, 0x6e, 0xff, 0xff, 0xff,
0x00, 0x00, 0x00, 0x01, 0x14, 0x00, 0x00, 0x00, 0x60, 0x00, 0x00, 0x00,
0x03, 0x00, 0x00, 0x00, 0x00, 0x00, 0x00, 0x09, 0x6c, 0x00, 0x00, 0x00,
0xa4, 0xfe, 0xff, 0xff, 0x08, 0x00, 0x00, 0x00, 0x30, 0x00, 0x00, 0x00,
0x05, 0x00, 0x00, 0x00, 0x00, 0x00, 0x00, 0x00, 0x00, 0x00, 0x00, 0x00,
0x00, 0x00, 0x00, 0x00, 0x00, 0x00, 0x00, 0x00, 0x00, 0x00, 0x00, 0x00,
0x00, 0x00, 0x00, 0x00, 0x00, 0x00, 0x00, 0x00, 0x00, 0x00, 0x00, 0x00,
0x00, 0x00, 0x00, 0x00, 0x00, 0x00, 0x00, 0x00, 0x05, 0x00, 0x00, 0x00,
0x49, 0xb3, 0x53, 0x3b, 0x38, 0x20, 0x6f, 0x3b, 0x35, 0x91, 0x7a, 0x3b,
0x39, 0xd2, 0x52, 0x3b, 0x1b, 0x0f, 0x60, 0x3b, 0x12, 0x00, 0x00, 0x00,
0x74, 0x66, 0x6c, 0x2e, 0x70, 0x73, 0x65, 0x75, 0x64, 0x6f, 0x5f, 0x71,
0x63, 0x6f, 0x6e, 0x73, 0x74, 0x31, 0x00, 0x00, 0x02, 0x00, 0x00, 0x00,
0x05, 0x00, 0x00, 0x00, 0x20, 0x00, 0x00, 0x00, 0x00, 0x00, 0x16, 0x00,
0x1c, 0x00, 0x18, 0x00, 0x17, 0x00, 0x10, 0x00, 0x0c, 0x00, 0x08, 0x00,
0x00, 0x00, 0x00, 0x00, 0x00, 0x00, 0x07, 0x00, 0x16, 0x00, 0x00, 0x00,
0x00, 0x00, 0x00, 0x01, 0x14, 0x00, 0x00, 0x00, 0x60, 0x00, 0x00, 0x00,
0x02, 0x00, 0x00, 0x00, 0x00, 0x00, 0x00, 0x02, 0x6c, 0x00, 0x00, 0x00,
0x4c, 0xff, 0xff, 0xff, 0x08, 0x00, 0x00, 0x00, 0x30, 0x00, 0x00, 0x00,
0x05, 0x00, 0x00, 0x00, 0x00, 0x00, 0x00, 0x00, 0x00, 0x00, 0x00, 0x00,
0x00, 0x00, 0x00, 0x00, 0x00, 0x00, 0x00, 0x00, 0x00, 0x00, 0x00, 0x00,
0x00, 0x00, 0x00, 0x00, 0x00, 0x00, 0x00, 0x00, 0x00, 0x00, 0x00, 0x00,
0x00, 0x00, 0x00, 0x00, 0x00, 0x00, 0x00, 0x00, 0x05, 0x00, 0x00, 0x00,
0xe2, 0x03, 0xef, 0x38, 0x59, 0xfd, 0x06, 0x39, 0xcd, 0x72, 0x0d, 0x39,
0xc8, 0x05, 0xee, 0x38, 0xeb, 0xf7, 0xfc, 0x38, 0x11, 0x00, 0x00, 0x00,
0x74, 0x66, 0x6c, 0x2e, 0x70, 0x73, 0x65, 0x75, 0x64, 0x6f, 0x5f, 0x71,
0x63, 0x6f, 0x6e, 0x73, 0x74, 0x00, 0x00, 0x00, 0x01, 0x00, 0x00, 0x00,
0x05, 0x00, 0x00, 0x00, 0x00, 0x00, 0x16, 0x00, 0x20, 0x00, 0x1c, 0x00,
0x1b, 0x00, 0x14, 0x00, 0x10, 0x00, 0x0c, 0x00, 0x00, 0x00, 0x00, 0x00,
0x08, 0x00, 0x07, 0x00, 0x16, 0x00, 0x00, 0x00, 0x00, 0x00, 0x00, 0x01,
0x18, 0x00, 0x00, 0x00, 0x2c, 0x00, 0x00, 0x00, 0x4c, 0x00, 0x00, 0x00,
0x01, 0x00, 0x00, 0x00, 0x00, 0x00, 0x00, 0x09, 0x68, 0x00, 0x00, 0x00,
0x02, 0x00, 0x00, 0x00, 0xff, 0xff, 0xff, 0xff, 0x39, 0x00, 0x00, 0x00,
0x0c, 0x00, 0x0c, 0x00, 0x00, 0x00, 0x00, 0x00, 0x08, 0x00, 0x04, 0x00,
0x0c, 0x00, 0x00, 0x00, 0x08, 0x00, 0x00, 0x00, 0x14, 0x00, 0x00, 0x00,
0x01, 0x00, 0x00, 0x00, 0xae, 0xff, 0xff, 0xff, 0xff, 0xff, 0xff, 0xff,
0x00, 0x00, 0x00, 0x00, 0x01, 0x00, 0x00, 0x00, 0x43, 0x39, 0x53, 0x3d,
0x21, 0x00, 0x00, 0x00, 0x73, 0x65, 0x72, 0x76, 0x69, 0x6e, 0x67, 0x5f,
0x64, 0x65, 0x66, 0x61, 0x75, 0x6c, 0x74, 0x5f, 0x6b, 0x65, 0x72, 0x61,
0x73, 0x5f, 0x74, 0x65, 0x6e, 0x73, 0x6f, 0x72, 0x5f, 0x31, 0x32, 0x3a,
0x30, 0x00, 0x00, 0x00, 0x02, 0x00, 0x00, 0x00, 0x01, 0x00, 0x00, 0x00,
0x39, 0x00, 0x00, 0x00, 0x02, 0x00, 0x00, 0x00, 0x24, 0x00, 0x00, 0x00,
0x04, 0x00, 0x00, 0x00, 0xf0, 0xff, 0xff, 0xff, 0x19, 0x00, 0x00, 0x00,
0x02, 0x00, 0x00, 0x00, 0x00, 0x00, 0x00, 0x19, 0x0c, 0x00, 0x10, 0x00,
0x0f, 0x00, 0x00, 0x00, 0x08, 0x00, 0x04, 0x00, 0x0c, 0x00, 0x00, 0x00,
0x09, 0x00, 0x00, 0x00, 0x04, 0x00, 0x00, 0x00, 0x00, 0x00, 0x00, 0x09
      };
const int g_model_len = 11088;
